[PAD]
[UNK]
[CLS]
[SEP]
[MASK]
!
"
#
$
%
&
'
(
)
*
+
,
-
.
/
0
1
2
3
4
5
6
7
8
9
:
;
<
=
>
?
@
[
\
]
^
_
`
a
b
c
d
e
f
g
h
i
j
k
l
m
n
o
p
q
r
s
t
u
v
w
x
y
z
{
|
}
~
¡
¢
£
¥
§
«
®
¯
°
±
²
³
´
µ
·
¹
º
»
¼
½
¾
¿
×
ß
æ
ð
ø
þ
đ
ħ
ı
ł
ŋ
œ
ƒ
ǂ
ɐ
ɑ
ɒ
ɔ
ɕ
ɖ
ə
ɛ
ɜ
ɟ
ɡ
ɣ
ɦ
ɨ
ɪ
ɫ
ɬ
ɮ
ɯ
ɲ
ɳ
ɵ
ɾ
ʀ
ʁ
ʂ
ʃ
ʈ
ʊ
ʋ
ʌ
ʎ
ʏ
ʐ
ʑ
ʒ
ʔ
ʕ
ʰ
ʲ
ʷ
ʻ
ʼ
ʾ
ʿ
ˀ
ˈ
ˌ
ː
˚
ˠ
ˤ
˥
˧
˩
α
β
γ
δ
ε
ζ
η
θ
ι
κ
λ
μ
ν
ξ
ο
π
ρ
ς
σ
τ
υ
φ
χ
ψ
ω
ϕ
а
б
в
г
д
е
ж
з
и
к
л
м
н
о
п
р
с
т
у
ф
х
ц
ч
ш
щ
ъ
ы
ь
э
ю
я
і
ј
љ
ћ
ա
բ
գ
դ
ե
զ
ը
թ
ի
լ
խ
ծ
կ
հ
ղ
մ
յ
ն
շ
ո
պ
ջ
ռ
ս
վ
տ
ր
ց
ւ
ք
א
ב
ג
ד
ה
ו
ז
ח
ט
י
כ
ל
ם
מ
ן
נ
ס
ע
פ
צ
ק
ר
ש
ת
ء
ا
ب
ة
ت
ث
ج
ح
خ
د
ذ
ر
ز
س
ش
ص
ض
ط
ع
غ
ف
ق
ك
ل
م
ن
ه
و
ى
ي
ک
ہ
ی
ܐ
ः
अ
इ
क
ग
घ
च
ज
ट
ड
ण
त
द
ध
न
प
ब
भ
म
य
र
ल
व
श
ष
स
ह
ा
ि
ी
ो
ौ
ক
ত
ন
ব
ম
ল
া
ি
க
ச
த
ன
ம
ர
ள
வ
ா
ி
ு
ก
ข
ง
จ
ช
ณ
ด
ต
ท
ธ
น
บ
ป
พ
ภ
ม
ย
ร
ล
ว
ศ
ษ
ส
ห
อ
ะ
า
เ
แ
ไ
་
င
ဆ
န
ပ
ရ
ြ
ა
დ
ე
ვ
თ
ი
ლ
მ
ნ
ო
რ
ს
ტ
უ
ქ
ხ
ᄀ
ᄂ
ᄃ
ᄅ
ᄆ
ᄇ
ᄉ
ᄋ
ᄌ
ᄎ
ᄐ
ᄒ
ᅡ
ᅢ
ᅥ
ᅧ
ᅩ
ᅪ
ᅮ
ᅳ
ᅵ
ᆨ
ᆫ
ᆯ
ᆷ
ᆼ
ក
ង
ត
ទ
ន
ប
ព
ម
រ
ស
ា
េ
ះ
ᵻ
‐
‑
–
—
―
‘
’
“
”
„
†
‡
•
…
‰
′
″
⁄
₂
₣
₤
₨
₩
€
₱
₹
ℓ
№
⅓
⅔
⅜
↑
→
⇌
∂
∆
∈
∑
−
∗
√
∞
∩
∴
≈
≡
≤
≥
⊂
⊕
⊗
⋅
█
☆
☉
♠
♣
♥
♦
♭
♯
⟨
⟩
ⴰ
ⴻ
ⵍ
ⵏ
、
〈
〉
「
」
『
』
〜
あ
い
う
え
お
か
き
く
け
こ
さ
し
す
せ
そ
た
ち
っ
つ
て
と
な
に
の
は
ひ
ふ
へ
ほ
ま
み
む
め
も
ゃ
や
ゆ
よ
ら
り
る
れ
ろ
わ
を
ん
ァ
ア
ィ
イ
ゥ
ウ
ェ
エ
ォ
オ
カ
キ
ク
ケ
コ
サ
シ
ス
セ
ソ
タ
チ
ッ
ツ
テ
ト
ナ
ニ
ネ
ノ
ハ
ヒ
フ
ヘ
ホ
マ
ミ
ム
メ
モ
ャ
ヤ
ュ
ユ
ョ
ヨ
ラ
リ
ル
レ
ロ
ワ
ン
・
ー
一
七
万
三
上
下
不
世
东
个
中
丸
主
久
之
乙
九
事
二
五
井
京
人
仙
代
令
件
伊
会
伝
佐
体
何
佛
作
你
信
倉
個
僕
元
光
克
全
八
公
六
内
写
出
分
刘
初
判
前
剣
劇
劉
加
動
勝
化
北
匹
十
千
华
南
印
原
取
口
古
可
台
史
号
司
合
同
名
君
周
和
四
団
国
國
園
土
在
地
坂
坊
型
城
堂
場
塊
士
夏
外
夜
夢
大
天
太
夫
奥
女
好
姉
姫
子
字
季
学
學
守
安
宗
官
定
宝
宮
家
寺
尉
小
少
居
屋
山
島
川
州
工
巨
市
帝
師
常
平
年
幻
府
式
张
張
彼
後
御
德
心
志
思
恋
想
愛
成
我
战
戦
戸
所
手
撃
政
教
文
新
方
旋
旗
日
早
明
星
春
時
曲
書
月
有
朝
木
本
朱
李
村
条
来
東
松
林
校
楽
機
次
歌
正
武
殺
殿
氏
民
気
水
永
汉
江
河
治
泉
法
洋
津
活
流
海
清
港
漢
瀬
火
無
熊
版
牙
物
狐
狗
玄
玉
王
現
理
生
田
町
画
界
番
白
百
的
皇
相
真
眼
知
石
社
神
祭
福
秀
秋
科
空
章
竹
第
節
米
紅
紫
經
線
編
羅
美
義
羽
翼
老
者
聖
能
自
航
船
艦
良
色
花
英
茶
草
華
葉
薇
藤
螺
行
術
衛
西
要
見
言
記
詩
語
説
議
谷
豊
賦
赤
走
路
軍
転
輪
逆
通
進
遁
道
達
遠
那
郎
部
都
里
重
野
金
銀
長
門
間
阿
陈
院
陳
陽
隊
雄
集
雪
雲
雷
青
面
音
頭
風
香
馬
马
高
鬼
魂
魔
鳥
黄
黒
鼓
龍
ﬁ
ﬂ
！
（
）
，
：
～
･
￥
##i
##c
##d
##a
##e
##l
##n
##k
##t
##1
##6
##2
##7
##0
##r
##v
##m
##u
##h
##b
##z
##g
##o
##s
##y
##3
##w
##ε
##γ
##χ
##ρ
##η
##ς
##f
##p
##x
##9
##j
##4
##ː
##5
##ø
##8
##σ
##ο
##ι
##q
##τ
##α
##υ
##ω
##ν
##ß
##æ
##ˈ
##ɔ
##ա
##ր
##ʌ
##ʃ
##ɛ
##ə
##シ
##ュ
##レ
##イ
##ð
##ا
##ر
##ة
##ل
##م
##พ
##ด
##ต
##า
##น
##ม
##ي
##ب
##ħ
##ン
##ク
##タ
##ム
##チ
##ェ
##ー
##θ
##λ
##и
##н
##а
##с
##л
##д
##м
##р
##к
##я
##フ
##ァ
##ア
##μ
##ı
##ʲ
##ɪ
##ɐ
##о
##у
##ł
##е
##ы
##ɾ
##ن
##ص
##ん
##な
##い
##っ
##し
##に
##こ
##β
##י
##ד
##ן
##т
##キ
##ゃ
##コ
##ロ
##ッ
##ケ
##み
##κ
##ウ
##ツ
##न
##प
##ा
##ف
##ق
##ʒ
##च
##र
##ʊ
##ŋ
##り
##き
##ɨ
##ո
##ծ
##ղ
##ւ
##թ
##յ
##ն
##ネ
##ャ
##ナ
##ʁ
##ワ
##ラ
##ト
##リ
##セ
##ス
##ル
##و
##ء
##ी
##त
##ប
##ស
##ि
##ɑ
##ס
##ט
##ו
##ห
##ล
##ว
##ง
##ป
##ハ
##đ
##ா
##ர
##ம
##ع
##ォ
##テ
##ヒ
##サ
##カ
##マ
##ョ
##з
##в
##ன
##த
##ு
##つ
##は
##と
##վ
##հ
##ե
##ս
##δ
##φ
##の
##ホ
##モ
##を
##メ
##π
##ʷ
##ち
##ʔ
##ก
##þ
##ɡ
##ц
##б
##ʈ
##ग
##た
##け
##դ
##տ
##د
##щ
##ᵻ
##ʻ
##œ
##ь
##ز
##お
##ร
##ะ
##บ
##ช
##อ
##п
##ɒ
##ч
##ш
##स
##ʰ
##င
##ר
##ש
##ח
##ら
##г
##う
##द
##ᅡ
##ᄅ
##ᅵ
##ᄉ
##ᅮ
##ˠ
##ន
##ไ
##ヘ
##ش
##ى
##ィ
##פ
##ע
##ノ
##く
##ま
##س
##ی
##ニ
##オ
##ᄐ
##ᅢ
##ᄀ
##ᆫ
##ᄃ
##ᅩ
##ի
##ը
##غ
##ψ
##ศ
##ส
##ท
##ᄌ
##ه
##մ
##ح
##ج
##ម
##ζ
##エ
##ပ
##ြ
##ʂ
##េ
##រ
##ា
##ヤ
##ल
##म
##х
##ʀ
##て
##も
##ɲ
##א
##ъ
##ʿ
##ב
##ק
##る
##া
##ত
##ゥ
##す
##ो
##ष
##ミ
##כ
##ם
##נ
##ת
##ˤ
##क
##լ
##ξ
##ษ
##ф
##व
##ј
##え
##ɦ
##ज
##ट
##ɖ
##ɳ
##ह
##ж
##ᄇ
##ត
##め
##կ
##か
##і
##ہ
##ʼ
##भ
##ג
##ז
##מ
##ל
##ʋ
##ت
##य
##ˀ
##բ
##ɕ
##ɜ
##ᅳ
##ᅥ
##љ
##ʐ
##ி
##ю
##ふ
##れ
##ǂ
##ひ
##ল
##ე
##န
##ћ
##э
##ソ
##さ
##ك
##ლ
##უ
##ა
##զ
##せ
##ʕ
##よ
##խ
##ջ
##ს
##ხ
##ɯ
##க
##ᄒ
##ᆨ
##ო
##რ
##მ
##ი
##จ
##ย
##ក
##ܐ
##ɫ
##ण
##ˌ
##へ
##ほ
##ᅧ
##ᆯ
##დ
##ព
##श
##ゆ
##ณ
##ภ
##ᄋ
##வ
##ヨ
##ⴰ
##や
##ธ
##ろ
##ה
##ﬂ
##ध
##ः
##あ
##เ
##ះ
##ข
##ᄆ
##ʑ
##ɬ
##ک
##ტ
##ვ
##ք
##ি
##ক
##ʾ
##ង
##ռ
##む
##ম
##ᆼ
##خ
##ʏ
##ذ
##ض
##თ
##ⵍ
##ⵏ
##ौ
##º
##ទ
##ث
##ᄂ
##ন
##ط
##ள
##ᅪ
##ɣ
##צ
##ユ
##ᆷ
##µ
##แ
##գ
##ց
##շ
##ச
##պ
##ﬁ
##ნ
##ⴻ
##ड
##ब
##ব
##ʎ
##ɮ
##ရ
##ϕ
##そ
##わ
##ɵ
##ɟ
##ქ
##घ
##ᄎ
##इ
##ƒ
##he
the
##er
##in
##on
##ed
##nd
##or
##at
##es
##ar
##en
in
of
##an
##al
##it
##ing
##as
and
##is
to
##ic
##ou
##ion
##re
##om
##il
##el
th
##ec
##ent
##st
##am
##et
##ro
on
##ac
##ad
was
##ur
st
##ol
for
##le
##ly
##ir
as
##id
##ter
##iv
##ig
##ot
re
##ut
##im
##ow
##ith
##ay
be
al
with
##ation
that
wh
it
con
##ers
##em
at
an
by
fr
is
he
##us
##ch
##ce
##ver
##th
##ul
##os
##and
ch
##ain
19
his
##her
##est
##ag
##av
##um
com
##ct
su
se
from
pro
##od
##ess
de
##ri
20
##ap
##ist
##ect
##un
ne
##op
##ere
sh
##ill
##igh
##ies
##art
##ard
##ber
##if
or
##ld
ar
##all
##oc
##ak
ex
pl
were
##ate
##ich
##ort
un
##ab
pr
##pp
le
##ant
sp
##ud
##gh
##ong
tr
##se
##ated
##ity
##ive
##ie
en
##ame
had
##ore
##ack
##ip
##our
##ast
##ear
which
##ge
##ov
##ough
are
not
##ment
##ian
af
##ell
##ial
##ound
##ost
##pt
rec
##ia
##ight
cl
##qu
##out
##ust
wor
##ary
whe
##ine
br
##oun
ad
##cc
##ical
##ave
sc
her
fir
comp
but
##ord
this
inc
##ther
200
cont
##ould
tw
##ous
ab
after
##ish
int
first
gr
##ions
##so
res
its
new
##ure
their
am
all
man
##og
one
##ue
##per
per
##ass
##ign
also
##ome
mar
##ub
##ok
us
rel
she
##oll
##ater
tim
##00
##age
##ide
##ond
they
##orm
ser
##ire
##hed
two
cr
part
ag
fe
comm
des
##uc
##ans
have
bec
##ally
##ff
dis
##pl
##ence
##ry
who
app
##ree
go
18
##ile
##ance
we
##ition
##end
year
##own
##iz
off
play
has
##act
##uring
been
ro
##uct
##ely
other
over
201
im
##aw
car
##ult
##lud
##ory
##ice
out
##ations
co
##ember
up
##ach
inter
att
ev
##ace
##ke
dec
fin
when
##land
pre
bo
##ade
##ib
##pr
##ail
time
can
during
##ens
##ount
##urn
fl
##ite
includ
ind
te
would
sec
##eas
##ks
fil
##ict
##ang
##one
##man
##ward
into
##we
him
act
bl
##wn
##int
dr
ear
##ates
war
str
jo
##ied
##ick
##able
bet
char
more
##nder
##ose
##ited
##amp
cent
##itt
film
par
form
me
##ents
acc
##les
cons
##ors
##way
el
##old
##ason
##form
##ings
while
mus
##vel
##ild
##ces
most
game
##att
##ft
##ind
##ug
thr
there
##gr
kn
##port
rem
nor
gen
##fer
ass
##aus
##ake
##ious
wr
how
qu
em
##ican
##reat
no
##iss
later
song
prod
##ra
again
only
reg
so
##rib
##gan
##ved
under
work
##ood
##rop
sy
may
them
##ey
ret
than
some
po
##als
pe
three
about
col
##ubl
##eld
199
##ix
##ween
##ath
bu
##ons
between
##ollow
##oth
day
air
##ered
high
bro
rev
mon
##hip
through
record
##te
follow
##ock
ma
eng
##ational
bas
second
##fore
end
li
##outh
releas
ph
ac
num
##ters
sub
min
pres
##hn
##ph
sa
##orn
##iew
pol
ed
alb
season
##ced
ep
four
def
##ics
amer
pos
world
do
north
where
cap
before
team
mov
##ular
spec
##ating
##ames
##ral
lar
arm
sm
made
sch
##ision
##urr
will
gu
##ived
such
##hes
##son
sing
000
##str
album
publ
##ton
##ep
met
##ished
sever
##ever
years
##ained
##io
##ode
supp
##ros
loc
call
10
gener
count
show
back
south
add
##let
##ning
inv
both
##ected
##ual
##tern
then
art
##ily
however
epis
##ery
used
mill
##br
rece
##uction
batt
##ific
being
these
well
##ury
##oup
stud
set
##ection
##ve
series
##uary
against
##air
##ank
charac
##az
##ale
bel
##velop
##ife
found
number
##led
17
lead
many
music
sim
##other
##ement
sur
perform
##ather
long
main
mat
##ert
op
##irect
city
pop
##ool
ter
##ause
##ince
##oy
develop
##fl
became
united
hist
several
including
##igin
direct
sl
cre
state
early
##ise
mil
brit
##ower
##ier
origin
div
##ised
##vern
ob
15
198
12
##au
trans
##its
did
##anc
appear
##ork
##ures
dist
##iet
nov
194
ext
##ines
##ities
ship
contin
govern
##ron
conc
##olog
win
##are
pers
prov
episode
##ole
states
##til
##elf
##ross
john
said
##ird
ann
##ful
following
crit
##ley
est
##ield
design
group
exp
could
dif
med
##ative
16
return
##ouse
oper
run
desc
##ought
##ann
american
##sp
bar
alth
##der
known
dep
##eng
although
near
any
ger
west
##ivers
aust
sign
serv
har
##ah
197
mod
king
jun
pass
##ase
11
down
##ually
196
##ll
##ued
##uch
land
##ident
fam
disc
##iam
red
##iver
began
gre
like
eff
offic
##ined
until
##row
lo
##emb
feat
##ople
##ism
ste
##up
##ject
##ty
##enn
##ange
##0s
##aking
##ern
school
own
because
along
point
##ided
released
rep
port
open
##ccess
inst
resp
##ele
##ins
##ized
called
imp
prev
national
star
maj
##els
##ists
people
##stem
##ured
##ys
wee
##ially
##ution
class
adv
million
##ull
##osed
##xt
##ium
just
system
id
cour
ever
british
since
13
aut
six
##ession
best
around
head
cor
aug
major
award
life
ju
##ene
writ
var
##ica
##cept
if
each
success
##red
##ains
##any
##ont
##ets
sept
av
bre
la
produc
attack
##gest
##ments
##ently
coll
character
##ark
##oot
use
arr
describ
september
start
##amed
august
same
##ible
tri
road
##ts
ge
occ
east
final
##aced
##ane
result
dem
support
oct
hel
another
five
##yp
sw
##aining
14
public
build
prom
##rap
##ired
km
##ik
great
##ended
my
old
camp
you
##aving
195
det
gl
##ues
took
sk
band
austral
german
book
line
##cl
ra
mid
area
house
##ob
small
complet
##ner
193
report
consid
##ove
century
##und
##ober
##ott
received
turn
##get
contro
october
chr
##ants
stre
##hern
univers
##ically
##hing
##ives
rout
##uss
191
##ble
games
what
partic
short
##ison
last
due
government
##ility
hal
vers
##ina
leg
rest
march
##ately
ent
ke
##gin
command
##ored
##ink
way
mag
person
##oss
home
jan
june
##ians
prot
mark
del
third
##inc
general
single
conv
child
##app
squ
july
##ission
tit
capt
##iving
##sc
november
men
track
##urch
apr
##omet
death
care
review
fur
event
much
##ute
island
york
april
differ
top
dam
##enc
cal
large
accord
##lish
soc
power
even
left
town
##ash
che
cast
##ilt
##ural
eu
vide
intern
##res
gun
allow
##ively
ant
##ric
30
##aim
month
##ger
pat
story
##ting
##idge
progr
kill
appro
vis
based
law
family
##bo
##ague
place
now
##ms
vict
##ales
incre
expl
park
black
##bert
right
##ified
spe
##over
ele
enter
company
army
##empt
conf
december
25
##avy
history
club
##ted
cond
played
addition
##ten
according
post
included
##by
storm
name
river
##ats
##rote
water
led
192
##ention
january
##ench
battle
##ograp
hand
##aged
##ient
##ared
##ime
ang
wind
##ling
##ball
##side
ii
wom
wrote
won
##apan
hum
##hen
##ony
##ven
##erg
times
##eal
##ages
##min
organ
opp
##ience
val
japan
previous
requ
far
within
##ody
make
rad
described
init
##ital
##med
those
##uck
bill
still
video
champ
stand
##ides
next
##ption
##erv
##omin
named
late
constr
belie
bus
##hy
week
original
release
among
##ract
further
##aff
##ister
attempt
repl
##por
list
##iven
league
##ilar
##embers
effect
very
dest
foot
force
iss
view
poss
##mer
##na
##iod
real
100
deb
##ior
##itions
route
commun
exper
species
production
##ret
##ps
##hest
##ached
members
sound
##ne
##ival
polit
cy
europ
infl
inf
christ
ref
former
milit
febr
tak
february
tour
similar
sol
elect
white
##ances
##ences
sold
period
nort
though
##ren
repr
division
days
built
roy
##ee
match
tele
super
nat
control
##augh
side
##hor
prop
tem
held
europe
sout
trop
plan
youn
rock
##ars
##ney
good
university
##ented
light
##rod
cle
french
president
##ness
say
service
typ
##ched
fle
local
role
desp
estab
help
2010
fre
##wards
equ
21
order
eas
coun
came
every
##ax
tot
caus
##ech
beh
having
sen
never
william
##oci
cross
##sh
sum
##ford
##ipp
sug
few
mor
##ler
##ulation
##line
##uted
test
associ
##raft
pa
chart
player
mount
prof
2008
often
see
common
stat
take
##ards
##ices
24
pet
2009
half
career
geor
##itten
##ying
##par
low
continued
pri
sty
ten
claim
histor
##ator
2011
level
sent
press
different
mich
##omb
fire
fun
without
##erc
##estern
despite
##ese
##ots
england
cover
rom
wat
##af
less
je
22
##ology
court
considered
comb
##read
party
dav
##ried
##ops
development
fact
##ves
##aster
field
2007
##iend
repres
don
##me
arch
church
##ru
tre
increas
country
night
##atic
##hel
county
influ
##con
champions
##ham
songs
friend
##iter
royal
version
english
##ittle
hig
##ones
moved
colle
military
written
vol
highway
trad
##essed
##lex
want
position
strong
##vision
program
become
2012
anim
mi
lim
##eder
##alk
chang
ve
forces
23
lost
##ize
lond
international
##urs
son
building
little
london
given
miss
total
mo
##ened
author
tropical
suggest
invol
##elt
refer
##craft
vir
ord
announ
let
vi
190
phil
##ald
##ged
lab
##atter
street
hour
read
import
project
##ai
sel
##ising
##irc
free
##iety
get
canad
eight
aff
bur
rail
##sequ
const
surv
gold
ly
##que
sal
station
defe
gave
earl
performance
##bs
went
cop
father
find
returned
##ches
somet
##ailed
using
##ae
jack
need
broad
published
coast
produced
arg
conn
western
compet
##oint
##ead
front
reported
hun
popular
##xim
trav
mass
children
recorded
particular
cult
##ably
television
##roy
##ional
##ories
2006
ins
##self
stated
mc
aircraft
##aign
ball
special
##ama
hol
interest
dev
##ency
ground
campaign
circ
ships
##ned
should
##echn
include
live
making
hit
critic
dou
love
age
hom
27
##ief
hurr
women
28
hurrican
##day
##ef
vo
central
throughout
50
prim
upon
##used
once
##iment
young
terr
##iness
cas
##ength
##ploy
##yl
##uced
suff
obs
himself
##osp
official
2013
australia
mot
wall
techn
championship
aud
##cess
depart
##co
characters
tro
ap
non
vill
rich
##ensive
fav
##play
26
present
mad
relations
##rew
players
40
##itive
##alth
##vers
##ring
sit
ft
tur
##ither
instead
fall
##iting
squad
southern
title
james
writing
seven
##akes
away
189
cost
base
hor
fac
begin
sea
fem
##acy
introd
hall
across
cam
died
ir
remained
months
center
##ense
##ges
grand
enc
developed
signific
promot
du
full
fort
political
look
net
##rict
##ked
various
##uce
mem
##lo
fif
modern
hot
##ument
cat
##ape
manag
##utes
hurricane
pal
wood
put
too
hon
hill
aver
ham
ill
##itted
race
##field
decl
##ael
fight
pra
hy
office
bow
curr
##ries
big
##ucted
##isted
##ille
hard
##fic
works
america
felt
areas
noted
indust
sil
eventually
mal
style
##ple
russ
announced
born
created
college
hop
brother
##ett
thought
reached
##ering
miles
##dom
destroy
engine
construction
mer
stri
bri
sun
hold
successful
northern
2005
##most
japanese
san
cro
body
seen
cut
pain
29
struct
##ana
esc
sym
toget
heavy
adm
followed
agre
together
range
##ements
meet
performed
brown
civ
served
##ization
##ress
##ows
2014
member
activ
##work
george
##orts
bridge
hen
mix
football
god
cert
tor
que
##idence
significant
killed
saw
round
##olution
taken
able
##ality
establ
bomb
##elling
##ature
gar
##ming
mm
impro
ident
sat
##ration
##ids
becom
##cent
##aft
action
reb
points
human
los
does
pi
##enth
##ecut
mean
established
ur
sn
thom
originally
invest
grow
##yn
insp
subsequ
##irl
##tain
others
##enced
entire
##aval
##ox
appeared
david
australian
director
voc
features
located
process
crew
stage
##ground
business
##oon
den
playing
##ara
mother
commission
started
expr
##aves
caused
##odes
decided
critics
##ects
pot
kingdom
##ius
civil
##ogn
word
feet
rather
mater
rank
##ster
##ript
##bur
##ators
fourth
##epend
econ
fell
inform
econom
##ament
independ
behind
resear
##ani
bi
##cil
represent
magaz
ital
discover
site
formed
added
fleet
afr
important
soon
188
pred
31
##ateg
##ample
##emy
comment
jud
##reek
sam
mart
know
##ivid
##wood
##ped
eastern
educ
damage
##iers
pen
guns
##be
completed
##ades
green
mult
population
sex
##den
almost
##hic
tom
##omm
robert
##head
##ata
inj
ru
##aces
peak
neg
lang
cup
##ction
close
interv
##less
jour
er
##ination
di
awards
initially
indian
##erm
princ
##ki
region
treat
##itar
loss
key
2004
##go
social
opened
creat
##eth
##aps
##oney
lack
scre
case
host
midd
michael
##ino
##arch
pract
proble
girl
relationship
##itor
##ship
186
ul
nar
##ceed
pur
fund
individ
sus
sett
leading
##lin
##ways
weeks
tradition
bay
sour
working
radio
separ
instr
2015
##ending
prem
##cast
worked
clos
france
diffic
difficult
lou
secret
draw
exc
towards
mac
appoint
##ma
##medi
recording
union
##istic
council
mel
scene
laun
##ky
##umb
##imes
goal
republ
wid
rain
##uel
henry
room
angel
norm
##igned
quick
##anch
rap
material
pit
break
records
accept
vot
scored
washing
##ena
training
must
provided
navy
least
colon
reach
wanted
rob
fig
500
ey
brought
average
dut
paul
recogn
##board
brig
feder
earth
featured
##iding
##ze
##ams
##ological
troops
##osition
##off
tar
foc
either
quar
nomin
proper
cur
187
allowed
fut
past
wife
mur
unc
contract
##ential
fa
respect
##cher
estim
victory
##here
generally
studio
washington
avail
inn
placed
ach
priv
cho
phys
rul
##aut
example
dark
runs
events
magazine
dro
##antic
chief
##eter
##aur
board
##li
##oring
##iction
summer
grad
##to
cred
##gar
battal
staff
eg
2003
particip
joined
designed
surf
wil
##ville
regular
hours
quest
squadron
##ells
##chest
employ
35
speed
nine
esp
##mp
bal
shot
##ka
operation
threat
media
opening
believed
relig
##ving
regard
##iff
##tim
come
der
mary
##omp
##anks
flight
cycl
ox
bir
step
transport
replaced
##aper
ide
prior
mph
scen
##uit
pay
##erous
captain
winds
sequ
##imin
european
stop
stone
police
langu
minutes
district
involved
##gn
##ification
earlier
mcc
##ico
infant
##west
finished
research
##fall
committ
society
news
##asion
length
contrib
possible
##ago
saying
##men
pil
immedi
commerc
change
association
depr
keep
##ray
trib
space
##icated
middle
admin
boy
particularly
highest
2000
fly
largest
films
remov
##for
bad
beginning
scott
exist
lower
##ecutive
available
##ishing
piec
uk
roman
virgin
percent
ny
2001
forced
respons
flor
assist
better
section
atl
ver
##ha
deal
achie
disp
##hib
weak
taking
lear
anti
outside
##anned
##ula
novel
meas
##ems
##reg
heart
plat
grant
charles
##of
##ography
thomas
##lement
##mar
##itz
span
increased
turned
ended
##erson
viol
##ises
reason
feel
clear
calif
reviews
##bor
##ested
community
units
##ocr
acad
californ
passed
##ck
praised
es
hous
##oph
move
product
##key
##wer
going
emp
##ios
##heast
future
##iation
##ude
additional
beat
2002
above
appearance
phot
bird
thus
##oke
beg
guitar
pan
canada
##sel
lik
ty
enough
##ership
liter
smith
##aded
castle
lake
daugh
pun
ordered
lat
##gress
previously
franc
##ests
personal
musical
##ush
##oul
account
signed
minor
infantry
doc
##rison
market
##agon
richard
alex
shar
theat
elements
instit
type
##che
rights
dig
##tr
##pped
california
##arily
positive
ber
##ida
corn
lyr
pac
nec
##icket
prob
critical
abs
##ections
parts
lord
food
##ference
##nal
dead
profession
give
female
background
travel
##berg
pow
lines
debut
##ening
reveal
spent
poor
impr
term
##pper
money
told
overall
##ased
ps
mic
##ilities
tax
##uation
committee
directed
##back
flood
45
blue
victor
##uter
failed
interview
deep
##elled
##nes
domin
roll
chap
required
##usion
kil
ren
groups
plot
concert
mach
broadcast
scient
happ
##bers
##ique
##ston
constit
anal
##ays
env
germany
##ume
india
health
itself
peter
evidence
christian
sometimes
##my
frank
##isl
object
fore
##gen
appl
60
##ibility
prison
reception
wal
bank
185
##ites
election
occup
##ga
commercial
asked
battalion
ha
except
parl
##nel
investig
##stand
##erved
transfer
##ready
##aker
living
##edy
sov
##ability
mex
our
administ
##apt
whose
cru
study
natural
##airs
complete
claimed
already
doct
score
##kn
##ream
##tt
approxim
governor
react
clim
bey
##onna
soviet
ol
square
introduced
minister
##onse
frequ
bul
whom
usually
32
think
students
##bc
woman
##ii
##ex
burn
amb
education
##wor
wild
##igan
idea
ben
muse
quickly
bud
lu
limited
##enue
chic
##aint
occurr
might
effects
stars
guard
rh
concern
##atory
movement
response
issue
syn
subject
queen
tun
polic
rac
centre
##ump
certain
##bour
surface
commander
your
slow
##ores
plant
lay
lib
espec
fifth
lie
anc
sand
department
arrived
hosp
especially
services
##ergy
britain
decision
parliam
##oor
face
contr
voice
compl
box
village
self
teams
shows
gard
##esh
structure
##anded
diss
museum
industry
operations
larger
walk
science
writer
impact
##ounded
fest
ultim
episodes
becoming
mas
mont
parliament
remaining
##val
remain
latter
access
estimated
heav
carried
multip
##ba
defeated
network
discuss
##aries
ran
##iron
pressure
flag
kh
surr
blood
gro
1999
tex
##ully
cm
##wh
36
scenes
##ugg
##ties
consider
cand
brief
leaving
virginia
##ective
##ulf
changes
sem
acqu
running
##onstr
##ift
jew
susp
suggested
meth
entered
##porary
nearly
##wr
fail
##ania
quarter
winning
appointed
influence
naval
date
twent
approximately
dom
depression
van
chall
size
##ining
##ander
##inct
got
leader
capital
language
fant
bat
shortly
##erve
establish
##oms
islands
jackson
favor
empire
course
script
princip
today
finally
tracks
cann
screen
federal
wide
regiment
emb
oly
mission
##change
upper
louis
amount
kr
proposed
territ
daughter
##pre
##anced
olymp
##ulated
current
wing
##iser
purch
producer
higher
##ecting
destroyed
manager
75
arrang
nature
lad
distrib
experience
ens
gi
aw
pict
corps
environ
##burg
##abor
fer
##dr
horse
spanish
canc
300
provide
railway
spir
breed
subsequently
altern
professional
##idents
democr
##ension
compared
brigade
concept
##oid
married
battles
cer
cele
liber
emerg
##uk
immediately
intended
saf
184
private
complex
journal
fans
##ication
temper
##king
supported
##inese
##ope
stay
entertain
mr
card
model
agreed
##ronic
80
done
shoot
edward
ca
##alled
imm
feature
initial
awarded
chicago
compan
archit
bord
celebr
increasing
fair
display
whether
related
weap
##tained
helped
##hem
intens
jose
text
legisl
##ria
planned
books
1998
ho
chinese
officer
##ris
##down
##oles
create
bring
penn
trade
longer
artic
kar
soldiers
gal
here
##uing
##atively
attract
##aring
cause
color
conserv
valley
memor
33
##thing
plans
yet
buildings
##ken
##teen
captured
##icted
changed
winter
martin
forward
sev
unit
##ector
block
conclud
friends
##ban
##ching
##aph
dance
mom
something
associated
##ny
pu
coach
spring
officers
##selves
remains
johnson
billboard
mostly
singles
subst
standard
##kin
themselves
pacific
##abit
##rupt
rat
countries
lyrics
##riage
mixed
hero
exam
really
probably
method
uns
extended
draft
##mon
ray
kore
iron
moving
numerous
financ
sir
ple
##ta
##umn
information
copies
portray
oce
scot
##asy
goals
rid
contem
always
nation
visit
birth
location
37
sales
tas
admir
##isions
##well
##isc
focus
congress
##olic
##rd
##gs
##rol
energy
1997
issued
individual
atlantic
leave
##ands
includes
confl
artist
counter
status
cit
##andon
mess
singer
conference
edition
suffered
male
jim
traff
via
tal
hospital
florida
prec
albums
maxim
problems
##rated
gall
##hood
meeting
termin
70
bene
likely
##aught
revolution
increase
independent
dog
##ounds
double
hu
carry
assemb
##bury
##hl
approach
movie
removed
00
china
texas
inspired
##can
morn
##fact
##bed
##etic
##ypt
lin
bond
carol
##ental
##atives
##ously
foreign
master
##ili
rang
terms
primary
kind
compos
majority
dv
##itting
##tic
##ograph
##jected
offered
sar
creek
##vin
vehic
ice
consist
qual
stad
minute
##icans
refl
ut
dail
tons
od
##ette
drum
adop
entertainment
##lands
inters
makes
attacks
fox
confir
takes
simp
183
composed
oil
raised
environment
canadian
observ
wa
damaged
ranked
combat
africa
log
##aches
adult
categ
letter
bor
daily
##era
mun
appears
intell
revealed
cyclone
##uth
train
und
selected
ath
metal
##ado
discovered
##ucle
##ails
determ
mountain
fighting
active
##chester
ign
era
##ify
34
russian
twenty
conditions
ven
dun
inside
kent
tv
morning
architect
##uries
greater
unable
accomp
launched
wrest
##light
##rect
respectively
angeles
##umed
38
iv
incor
whole
1995
sched
sister
issues
deg
##ription
numbers
ali
needed
bed
gas
yard
smaller
lived
thir
contains
schol
traditional
##aj
dar
##oud
touch
below
wit
shown
attempted
newsp
##leg
slight
culture
iii
occurred
cart
##ste
yards
attacked
religious
##lor
cab
##uals
##zz
silver
##uments
##aging
bab
##oo
##ortun
##joy
tourn
ring
actor
sports
festival
elected
annual
defeat
experi
constant
2016
##ev
nick
larg
1996
##olk
rein
reform
referred
peace
fear
neigh
##izing
mind
bon
asp
os
##vert
sav
theme
##amb
ocean
##ault
19th
psy
audience
magn
ris
schools
##rial
largely
##ari
prince
express
resulted
##urity
##enant
link
assigned
covered
listed
fast
##com
variety
90
collection
italian
purp
coup
competition
##uated
glob
##ogue
indic
1994
cath
pair
conflict
ash
viet
haw
earned
matt
stadium
cham
expected
controvers
commented
names
recover
##itude
attention
nucle
starting
dvd
##ocks
closed
francis
##quar
question
performances
pick
rapid
imper
##tered
airport
prevent
extre
giving
spl
legal
figh
##ims
refused
economic
cust
ros
mir
zeal
greatest
crow
##ya
##ees
enjoy
waters
contact
michigan
##aped
stories
hus
tower
electric
##asc
ability
disapp
##rian
serious
##ker
rate
hund
forest
meant
##bridge
##ipped
declared
wales
promin
stan
vocals
native
49
poll
matches
things
##use
##yr
##bre
##isher
hundred
mention
180
levels
##ples
words
swe
progress
abandon
##ij
chann
athlet
marriage
nearby
##iest
fill
die
produce
##yan
nin
kenn
practice
defense
constitution
necess
mech
notes
constructed
41
##itation
wear
##hold
fantasy
lot
##odies
candid
advance
doctor
##ols
source
##win
1992
##ona
weather
vocal
mu
##road
emper
kilomet
labor
##wide
separate
##overs
highly
oh
means
farm
writers
eth
overs
medical
executive
##ellow
directly
1st
sle
##acher
african
exhib
presented
##ishop
mexico
purs
ultimately
continue
##onom
cub
reduced
ess
northwest
zealand
##ging
direction
positions
effort
400
flow
##yst
##rie
chem
admiral
##mas
##rey
dan
##gl
##ingu
efforts
brad
##ibly
animals
##band
mechan
formation
dism
55
##oper
lieut
defend
chris
houses
tried
dyn
attended
strateg
accepted
studies
batter
talk
ram
financial
stating
rule
perm
symb
libr
theatre
stra
lif
##rier
##ror
specific
memorial
advent
bob
madonna
##vement
1993
seem
##uff
mol
20th
recomm
##une
saint
1991
cerem
incorpor
##track
prep
favour
jer
begins
bell
pilot
inch
##isation
prepar
ending
scotland
##ung
honor
179
cases
true
jones
traffic
organization
mos
multiple
luc
enemy
attend
39
##ersey
pack
sides
drive
##ca
thick
mob
##house
##ners
chair
##ita
hyd
flying
rough
arab
managed
##iance
greek
meaning
##illery
forms
responsible
cold
uses
42
kept
resulting
tournament
##utions
eye
soundtrack
48
##olf
ll
dropped
diam
academy
lieutenant
showed
compr
repe
182
authority
policy
quality
##like
hors
exped
path
prime
bost
strugg
les
apart
spirit
row
ded
##ceeded
secretary
founded
acting
rose
administration
combined
##ada
boat
marked
property
passeng
trial
##ires
continues
systems
artillery
williams
emperor
##nam
propos
edge
inches
bound
print
subsequent
##cend
181
artists
encoun
paris
attempts
hind
territory
contemporary
search
##essions
##iated
appar
##osh
marsh
##thel
planet
viewers
perf
ban
potential
rear
seg
##essor
studios
steam
convention
ni
thous
rod
suppl
companies
northeast
presence
##icip
##ulations
allowing
coal
egypt
scale
sixth
target
recent
behav
conducted
officials
fat
##thur
digital
##ero
job
respond
distinct
##inem
1942
filming
collabor
surround
machine
##standing
scoring
contrast
colour
yellow
parents
metres
opportun
lee
georg
bott
47
corpor
transferred
latin
maximum
##ications
stephen
ec
senior
sac
demonstr
headquar
figure
##sen
coming
##enge
theory
65
featuring
opt
##ket
therefore
diseas
oxford
owned
primarily
allied
student
peaked
piece
relatively
elev
torped
joseph
becomes
titled
##aga
##oe
actually
torpedo
hers
##draw
distance
citiz
portion
beaut
concluded
mort
republic
##ils
temple
stock
##orter
ton
##unt
boston
write
harrison
mut
merc
manchester
jeff
battleship
premi
bit
bass
withdraw
transl
situation
psych
52
observed
selling
strength
physical
swed
resist
invasion
46
broke
lov
doll
plays
share
alongside
results
suc
concent
paid
rating
##ini
##istics
calling
divided
sources
seconds
laws
cities
jersey
ott
1944
security
columb
43
returning
powerful
slightly
tree
inh
##ns
##stein
##rick
border
historian
historical
kg
44
64
arts
shel
##gu
birds
management
conver
##anna
mile
minim
##iced
nothing
mis
##aming
adj
actions
onto
imperial
beach
sust
else
trust
vess
carl
influenced
platform
ow
freed
activity
innings
##ding
##za
cricket
tend
##astic
bbc
fan
cultural
comedy
nominated
residents
resc
promoted
ire
et
crown
##osaur
1990
croat
##ips
appeal
designated
passing
problem
##ule
completely
guest
weight
sexual
height
mainly
lane
charts
arms
doub
encour
##istry
poet
trail
charge
avenue
##iber
sought
content
webs
struck
##ota
1945
replac
sense
seasons
hands
equip
feed
sr
vari
bowl
pul
paper
fish
subm
1941
document
conduct
150
ancient
reaching
spect
personnel
##mond
##ider
##iano
cell
##ills
medal
##while
image
dang
italy
weapons
channel
##olved
widely
instrument
##oman
##ques
##cy
americans
habit
##don
appearances
drug
harv
emot
alone
wars
baseball
##ysis
shell
confirmed
gained
##ylv
hotel
fiction
##ura
intellig
##cle
##pass
beyond
compar
##adel
##iles
liver
brothers
join
choice
older
element
sport
ireland
versions
##rative
proved
deliv
library
il
##uled
explained
reign
offer
dw
manu
##erse
steel
expans
murder
2nd
ahead
##mans
##oration
says
##ew
negot
1989
headquarters
bol
serve
##known
floor
sens
comes
51
alt
causing
speech
entr
send
defence
rainfall
sant
##yer
1943
require
##inn
fal
catholic
suit
workers
expressed
victoria
charl
equipment
article
growth
ri
reports
roads
##ety
occasion
##town
gross
drama
pap
surpr
advanced
prominent
offensive
##ancy
branch
rog
soft
husband
##ym
officially
capture
interact
identified
category
worldwide
setting
dani
armed
##icient
manufact
tells
jul
computer
##ano
justice
snow
##ighth
##har
pattern
joint
reserve
matter
surre
tay
heavily
##icks
##bon
extra
spread
represented
activities
clar
##iring
pieces
treatment
adapt
##mark
leaves
escape
places
actress
senate
leaders
meanwhile
trees
avoid
soul
expedition
figures
orb
unf
duke
albert
fired
believe
agreement
injury
why
##abeth
##een
##ube
1980s
1940
dutch
data
mit
##ylvania
##igr
##ece
lives
toward
illust
eliz
supply
unknown
anth
doing
barb
##where
editor
unlike
bart
golden
debuted
homer
##rel
laid
din
##acity
consisted
casual
exec
aired
walls
dream
strike
argued
##pool
##emic
stations
##ds
opin
dur
typically
##ears
##rical
jon
imag
watch
##osen
opposition
motor
reference
moment
spin
severe
polish
twice
##dy
##ushed
affected
claims
animal
mounted
description
1970s
##inson
600
##bn
nations
powers
actors
##ads
industrial
technology
sher
##bi
supre
notable
store
##eman
faced
challeng
maintained
couple
accident
value
horses
emph
##hew
trying
1960s
knight
##hire
##worth
tech
visited
##ifying
fellow
convers
survey
##ote
spr
protection
orders
criticized
pros
mul
fuel
hair
delay
carolina
holly
landing
som
##ockey
assault
broken
label
growing
fully
##cing
53
resident
##uous
motion
abb
chosen
cool
twel
##ala
institute
##lines
hat
##intend
solo
scottish
##gian
sail
cooper
1987
producers
criticism
twelve
gil
1988
frequently
##egr
youth
philos
85
##ici
seventh
##ux
condition
penns
summ
ce
accompan
looking
##anes
newspaper
nuclear
oppos
bac
vice
lands
independence
##more
sky
urban
##stone
##lam
billion
degree
lew
chor
register
comic
surrounding
composition
gh
##ordin
wounded
##agn
md
##rael
republican
reinfor
assembly
operated
##izes
cinem
moon
creation
serving
grew
simply
dry
##ayer
expansion
champion
bc
follows
vote
tel
risk
rival
famous
##ola
contained
incident
agric
tam
herself
##urb
newly
##ucky
weekly
losing
##wise
experiment
southeast
killing
christmas
##yle
andrew
honour
oppon
individuals
caval
passes
54
ends
normal
jac
##wall
split
##urt
##ivity
perfect
restrict
heard
attrib
##ocked
wilson
##ends
chronic
emphas
consecutive
##isters
##ledge
aer
homes
nav
measure
website
taylor
##jo
cannot
95
elizabeth
##pton
thing
56
1986
opposed
##la
chose
supporting
narrow
97
##ickets
parall
volume
##ographer
consequ
alexander
perman
crossing
note
agricult
##fully
joe
von
sequence
##water
wave
themes
famil
rare
leadership
rise
participated
opera
##resp
skin
##gend
adopted
disease
eld
capacity
historic
dub
arc
##azz
eyes
##aine
rot
defin
colonel
standing
fresh
max
##ancing
plants
##iled
visual
filmed
tall
advant
trip
abandoned
negative
##imens
evac
basis
democratic
budget
##anda
pennsylvania
sund
straight
177
pier
failure
benef
mike
##rid
prompt
##amm
gameplay
creating
##kins
regarded
##born
rand
possibly
treaty
irish
girls
bodies
deploy
palace
##isers
harry
canal
foundation
##under
distingu
seat
##greg
##aver
lady
column
sin
kid
lap
pin
excl
gri
legend
horn
##illy
##uses
domest
kick
worth
merch
eag
ideas
lind
interchange
advert
##ko
dismiss
ped
zone
retired
mist
tank
surrender
hyp
spain
lic
tell
hockey
sud
extensive
##engt
76
1990s
178
ba
##ias
nob
younger
##lers
scholars
dial
roles
aid
atm
garden
explos
ga
analysis
franch
hope
1939
railroad
bishop
##uls
##apped
##ja
function
achieved
improved
repeated
drew
##set
try
lem
economy
##ram
effective
ridge
basket
classic
piano
orchest
wed
##han
##oma
briefly
chamber
gate
hay
##orters
israel
##ato
glass
aim
61
banks
core
household
calc
##iana
southwest
granted
vehicles
gather
currently
purpose
citizens
necessary
rejected
arthur
sell
regional
##otyp
fame
66
sche
defensive
##arked
speak
braz
1968
caught
1985
types
recently
turns
organized
receive
atmosp
expanded
genus
secondary
authorities
##lusion
province
commissioned
flooding
##het
didn
kilometres
online
ori
##oln
drop
rhy
cavalry
##tv
1970
ohio
##iments
letters
families
roof
transform
performing
successfully
literature
tail
freedom
marine
kir
determined
vac
describes
##cel
ble
##utation
safety
assistant
##adelph
agent
##iday
dram
fought
ron
custom
picture
##ases
goes
unus
prefer
singing
1984
##uate
800
philadelph
acquired
titles
##umber
##de
commonly
journey
da
##iate
upgr
##stream
freeway
gives
suggests
##alty
centuries
supreme
distribution
##illa
planning
57
georgia
##oted
revol
##ading
mentioned
##ifications
deck
az
ka
sets
cambridge
web
myth
controlled
contain
scheduled
alternative
philadelphia
trains
##inger
kel
cook
120
contest
dip
ell
depict
##och
##attle
protect
chance
shooting
unique
graph
##haps
##pi
regarding
decre
principal
sie
perhaps
virt
fix
1967
save
spot
finds
fro
62
integr
##rec
##umes
russia
reading
extrem
gill
estate
scientific
reaction
ss
crime
facilities
demand
witness
tag
##outs
##shire
rules
wrestling
##amin
##aven
request
session
1980
gain
lis
arrival
ok
rum
containing
submar
exchange
publication
linc
teach
ceremony
rated
recru
accompanied
thor
belong
nintend
rub
price
fighter
brook
##hol
liverpool
deter
ta
##eck
quite
extr
tact
finish
selection
jenn
##ete
nintendo
##hi
mand
brid
locations
hits
touchdown
brand
moder
mouth
simple
columbia
entirely
evening
tab
##once
##unk
om
cd
firm
destr
prote
existing
58
asia
dedicated
fash
cloud
##station
##agan
singap
legacy
contributed
resistance
korean
kings
provides
crowd
74
page
ax
remix
purchased
boats
windows
1983
brazil
resemb
campus
throw
##itan
adap
jewish
##ulate
##eg
##room
battery
##ington
intensity
##eless
##inity
francisco
advantage
sites
##respond
lincoln
correspond
whit
occupied
table
boys
bron
bes
singapore
1964
eighth
##oses
towns
72
casualties
##iences
1969
grey
holding
alle
occur
bright
promotion
carey
miller
gulf
gay
##hens
trou
elimin
protected
astr
drawn
hydro
resour
disney
regions
nap
structures
playstation
code
##fort
conqu
##laim
1914
coastal
closely
basketball
cars
##onic
receiving
tenn
1918
opportunity
hms
nic
##itled
gib
##kes
##ompl
lewis
##ua
generation
##iny
1982
judge
##fri
##usc
turning
calls
1971
steve
59
consists
unsu
byz
brian
1966
fit
##burgh
anderson
symbol
acts
1972
roughly
##rig
grade
jr
1979
defined
corner
reserv
heads
olympic
strengt
##wick
##rons
ast
##ware
fashion
byzant
experienced
anything
rolling
hem
99
heat
flu
##box
losses
bands
##ocated
protest
##garian
retire
##awa
ts
1965
daniel
##eed
viewed
engaged
hip
providing
focused
nhl
task
politics
religion
##eb
1975
developing
patrol
relief
phase
uncle
map
##oster
##mann
semi
males
wond
3rd
oak
shared
shall
tow
hired
bottom
intelligence
gram
highlight
germans
temperature
hollywood
folk
enl
##ella
solid
walter
rapidly
credits
faith
investigation
guy
junior
everything
rene
recognized
equal
launch
exact
18th
1974
davis
missing
flat
introduction
hart
63
##ifically
belief
##eper
cou
##heim
lb
hell
1973
##opher
ans
painting
gam
getting
77
armour
rome
73
vent
gord
isol
jean
substant
prepared
serb
mountains
franchise
shape
falls
##ilton
opinion
knew
##mouth
beyonce
global
cens
thin
descend
significantly
domestic
1976
sort
##rich
approved
auth
projects
##pa
adding
lit
sab
literary
intersection
##eds
##wart
##etts
wings
##bound
##rane
han
confeder
pret
penins
##eals
##ender
reasons
knowledge
##iat
raid
naz
playoff
cris
##sey
musl
##erted
unsuccess
##ishes
nas
challenge
##iful
##ologist
wheel
250
##ographic
cabin
bull
greg
autom
vic
##ira
syd
hung
unl
poem
ari
##lav
shaped
bern
stages
views
escort
ward
67
evolution
archae
sed
exerc
settlement
##ador
storyline
typh
parallel
rar
internal
labour
operating
##achus
##break
shut
reputation
##istan
renamed
##ek
watched
thirty
##ati
professor
baby
proceed
fine
humans
##unte
popularity
females
##eral
neverthel
nevertheless
limit
employed
lun
##asty
allies
##ping
guide
rebu
##zen
neut
injured
jam
torn
volunte
cited
increasingly
ross
models
##iro
cape
##antly
blues
consc
kentucky
96
wealth
1946
headed
##awn
paint
las
finding
neither
1981
collected
declined
philipp
connected
hills
violence
68
grav
details
scul
82
existence
depth
##onym
enjoyed
entry
1950s
##inum
converted
consum
##aka
learned
norway
volcan
connect
controversy
sustained
sad
impl
ken
##tar
outer
1917
olympics
##iger
championships
applied
cad
nest
##ients
##istol
massachus
lev
87
premier
allows
##iform
gang
camera
##ceived
cells
sculpt
crimin
teacher
massachusetts
clark
##rif
##imet
synt
##otic
##ava
ways
occas
raw
160
tests
decade
approached
##osis
arsen
easily
entrance
gray
interp
##atures
designs
downlo
##ropri
foss
duty
carrying
responded
##onia
##ali
discovery
confron
sax
chairman
vel
1948
loy
pitch
breeding
hang
bush
buried
##roll
700
##ima
formula
extension
##esc
gradually
succeeded
technical
tu
programs
1960
##psons
scar
convoy
specifically
simpsons
prize
acres
mayor
jay
mode
sons
showing
69
door
items
municip
##ignment
address
install
sections
91
prisoners
raf
stret
genre
exclus
arranged
##itors
shr
credited
gone
hull
pear
maria
none
teen
1978
statement
plac
##ogen
similarly
cryst
producing
util
leon
parties
micro
bath
seems
winner
##inal
shop
improve
additionally
78
bear
ot
triple
vietnam
scr
presidential
earliest
jes
##arm
weakened
##come
landfall
threatened
warning
rural
candidate
ottoman
adam
routes
##va
sounds
fields
engineer
##inary
1915
sharp
##entions
inner
divisions
combination
retained
94
poland
##itch
sydney
spok
brain
1977
maryland
lasted
moore
mtv
products
jur
hear
kim
##put
dress
ones
evil
1950
##inking
chemical
##taining
funct
animated
replace
lam
basic
swim
98
81
frag
interior
adapted
inspir
##issance
supplies
##rit
speaking
##itage
grounds
engines
1963
repair
afterwards
cul
message
tra
dele
##iel
filled
maintain
peninsula
lock
delivered
equival
cow
agency
crash
supporters
magic
entitled
clean
affairs
permanent
indicated
climate
downtown
stopped
architecture
##oz
extremely
engineering
surviv
1916
correct
##oli
causes
alien
##rets
diamond
##inton
71
wides
##izations
##hr
deaths
fruit
proposal
mulder
restaur
##leton
importance
buff
##wa
bos
mine
##ushing
secure
mars
89
##bl
spons
returns
gordon
acid
##emies
##apes
deleg
##othes
mans
ratings
ches
composer
pig
rhodes
1919
implement
abd
##book
##math
knots
poly
1962
##aling
##aud
ak
classical
survived
giant
88
streets
references
compon
##ropol
aftermath
describing
##osa
armor
##bourne
fict
##aki
classification
writes
##ela
alf
songwr
convin
holy
medie
typical
##inois
sale
##time
##iversary
bought
##nic
someone
1938
images
concerns
environmental
remember
ira
entering
flo
rivers
studied
ruled
universe
na
portrayed
hug
rab
mah
##entially
preced
arrested
cruiser
voted
tanks
reduce
vul
decline
recalled
simon
eleven
nel
ago
retreat
sor
kat
##eton
intention
medieval
79
purchase
corporation
siege
actual
jane
##met
owner
bang
feeling
subs
objects
##adow
alliance
typhoon
##ansas
capable
##know
liberal
pav
chapter
nomination
sessions
princess
recognition
academic
camer
identity
thousands
hunting
funds
driving
1956
offers
connection
meters
175
concerned
##una
noting
kong
tony
##aly
equipped
##ucks
passage
anniversary
##po
debate
admitted
colonial
recommended
decades
historians
##icide
finals
interested
##aints
subt
pip
##oir
alan
1930s
consisting
sight
invited
adams
jord
wel
arsenal
92
##eller
programme
decor
universal
thunder
dougl
dipl
eat
installed
breaking
##encies
crossed
warm
quant
1936
##aked
considerable
##iques
##ipping
diet
##eline
colony
undert
sequel
##wich
##ingly
##ropical
courts
##aken
starts
hamilton
##oked
establishment
veter
dates
manner
charged
##gers
enemies
improv
##eston
84
##acks
duties
remainder
130
##ranean
truth
jump
styles
##cement
##pread
negoti
##heas
ready
utc
##chers
shield
communist
salt
##rate
##aham
1920
conservative
widespread
promote
pictures
bure
1961
##ilation
pad
bid
nether
behavior
##osaurus
cos
marc
occasionally
thro
shore
classes
argent
departure
aspects
93
##mus
animation
slowly
continuing
indones
credit
nba
electronic
##ucing
myst
1953
kennedy
transition
##iling
beautiful
hou
romantic
resources
plate
happy
wearing
orchestra
acclaim
monument
rhyth
freder
##akers
chapel
emergency
destruction
scout
disappoint
turk
sweet
sunday
pure
ride
howard
assistance
posted
indiana
senator
norwe
formal
##athan
occurs
scully
pleas
carbon
treas
transportation
##ager
##atch
alleg
1930
##hetic
##ashed
accur
certified
hitler
strip
populations
superior
##zer
vessels
memory
mathem
income
dated
17th
1947
cant
properties
hur
conservation
attached
##icit
##after
ryan
1958
demol
chorus
dean
pound
86
portug
amend
equivalent
##icate
##otted
ancest
passengers
##ione
adventure
shots
involving
dor
reun
desert
wwe
circum
##ophy
rig
##oard
heritage
1957
medic
expand
tunnel
##veland
oldest
acknow
settled
sleep
terminus
pink
catch
##ovic
barr
1937
fisher
##regon
##aware
obtained
##anian
rescue
bombard
authors
worst
derived
wins
mexican
ninth
accused
circuit
##agues
finishing
inher
collect
incorporated
cleveland
##ivals
reviewers
ker
lenn
oregon
favorite
navig
douglas
kit
mediter
illinois
##etime
prey
charges
belt
crisis
moves
bou
sword
junction
replacement
##oes
dynasty
##heastern
##ables
hosted
bringing
vehicle
grass
missions
committed
andy
##uge
segment
pope
audio
##bar
assumed
supposed
##western
##orney
denied
stanley
4th
1959
110
##ommod
rooms
interpret
recre
clubs
circulation
rebell
representatives
unusual
fictional
premiere
dens
transm
lanc
roger
##ruption
##agonist
shear
intercept
meg
##ooth
beatles
mediterranean
outstanding
musicians
deput
kevin
deem
bruce
seeing
strongly
theater
##lee
##wan
1954
commanded
reality
solar
norwegian
anton
wickets
monarch
completion
1955
begun
neighbor
cathed
bristol
consult
rug
characteristics
costs
materials
mes
persu
gust
exception
desire
methods
alleged
tied
possibility
isbn
haz
philip
surviving
passenger
vision
craft
sailed
everyone
praise
##omy
##ji
responsibility
##friend
attorney
buy
ford
opposite
atmosphere
driven
differences
lisa
pel
carrier
##borne
wet
habitat
ku
dragon
missed
thereafter
voy
##ami
representative
scheme
rif
mig
##state
otherwise
##burn
##works
##onto
gor
vary
##rus
##char
orange
obl
##ules
##erged
wrong
nich
platinum
funding
korea
recovered
consp
massive
##anth
throne
phill
strategy
attributed
sid
83
retirement
##iant
ceas
##aza
effectively
stayed
communities
##urray
shif
1952
warri
serves
predec
cancer
emerged
fu
##ien
morris
ministry
weapon
adults
##alf
outbreak
##weight
punk
##aug
morgan
##cer
aboard
norman
##organ
twin
accommod
robinson
classified
##opes
politic
regularly
nelson
documentary
partn
mobile
elections
accounts
township
jazz
cem
##elsh
##bell
hawai
enterpr
catal
wonder
underground
mint
176
expect
1933
##rett
factor
strengthen
dal
stead
inspiration
satis
crosses
##arian
##oslav
##isms
falling
dissip
illeg
attracted
forming
circle
crop
stood
##riers
bag
lith
trials
submarine
lies
parks
lyn
batting
##ito
criminal
##enses
racing
pull
##pective
races
##ersed
movements
renew
lut
ko
injuries
##rupted
##mes
needs
vert
raise
votes
##pping
eric
1935
##apping
sweden
##eted
separated
symph
ech
shark
1910
commem
##oking
advis
chain
relative
##uting
allen
publisher
garrison
photograph
cu
nom
sudden
patrick
##lets
battleships
wy
earn
1949
1951
##idden
temporary
distinguished
soph
toronto
welsh
standards
difficulty
##eness
atom
partner
##da
queens
byzantine
ports
facility
surrounded
seemed
ah
delayed
plane
enth
eggs
gets
##teenth
harm
rud
pir
arn
hoped
remn
elder
13th
restored
toll
##rog
##imate
childhood
requested
##war
##ogy
metropol
penalty
flank
shir
angle
hut
amaz
uss
matthew
16th
tub
claiming
netherlands
internet
##rell
##oyd
ages
temperatures
jordan
bridges
divers
reviewer
elsewhere
##bing
##abil
astronom
greatly
cathedral
##yard
publishing
convinced
moderate
murd
dangerous
wolf
##real
lor
frame
stands
##omot
jacob
jews
cycle
meets
kiss
reconstr
instruct
examples
dod
convection
##gy
appropri
mete
painted
##abled
adaptation
construct
accompl
alco
spoke
molec
##iva
wright
recordings
learn
hundreds
easy
iraq
drag
involvement
pitt
1900
scrap
##erto
immediate
fled
##ez
##lying
##iley
parish
excell
anyone
tries
techniques
coin
thomp
anne
satell
7th
insur
salv
encouraged
appearing
learning
leaf
##dh
armen
somewh
somewhat
prohib
kelly
##lan
wooden
hub
safe
suffering
premiered
veget
russell
legislation
graphics
displ
croatian
synthes
thompson
islam
assass
horror
determine
##cop
flash
journalist
dismissed
##agement
##pe
pak
bears
patri
measures
hud
margin
ensure
interests
06
##asing
absor
5th
dating
upd
whereas
fighters
trophy
carter
##going
chur
depend
usa
attempting
facing
nfl
##agre
puerto
bats
holds
theor
thousand
##bro
hend
questions
##rad
gent
poetry
extreme
depos
spears
bypass
formerly
##body
biggest
enfor
fitted
option
visible
##arn
conclusion
starred
##ighter
attacking
##agu
closer
##itzer
absence
influences
productions
##rete
commonwe
buck
##ses
##alo
hungarian
6th
modified
lion
reprod
neck
nickn
cloth
batman
deemed
1913
bronze
commonwealth
scand
novels
laboratory
instruments
##elsen
parker
apparently
narrative
controversial
diplom
distributed
locomot
harris
landsc
##uv
stor
fred
longest
territories
leads
1926
##ester
files
murray
understand
alph
operate
landed
trained
12th
discip
gallery
rhythm
1927
creative
900
restoration
unp
1921
settle
acknowled
mamm
mainstream
victims
visitors
1934
arrangement
finn
dre
sees
releases
dna
uniform
08
coins
representing
unsuccessful
tone
##astr
dynam
##chang
abbey
##aya
liqu
weekend
substit
sang
resolution
refuge
yan
##aws
believes
houston
yug
enh
owners
influential
excess
looked
##apers
depicted
wol
##ixon
berlin
##ares
kw
wag
basin
comics
videos
exit
secured
informed
dominated
##eler
harbor
1912
churches
##roit
notably
##ivan
casting
##aska
giants
lod
##illing
legs
santa
watching
driver
cov
swedish
##itable
neighbour
##zy
simpson
languages
guardian
relationships
##atically
behavi
apparent
1932
##ultane
indians
simultane
offices
meteor
bh
##night
##gets
##ois
device
terror
imposs
cabinet
jesus
housing
##dd
testing
##acent
##owa
skills
dies
ye
##illed
diagn
tie
##vis
pregn
cock
dick
concurr
raaf
sull
##apse
09
achieve
opponents
cemet
liz
cemetery
hearing
deliver
khan
emotional
factors
##coming
cod
bun
warner
deployed
##rations
aftern
pale
intense
fab
jason
nbc
dialogue
bapt
##mun
impressed
##osure
surg
operational
##olph
generated
reportedly
##igg
yugoslav
download
detail
drums
agents
si
render
##iously
anthony
commit
##ucture
happened
experiences
window
mainten
agricultural
##rant
disappear
footage
trek
employees
##arts
maintenance
gaga
##ternal
somers
##fare
kal
satur
successor
hans
##ache
dj
mud
cob
scientists
um
commemor
rising
firing
croatia
clay
detroit
lose
zero
##otype
gilbert
negotiations
lowest
##icial
##hanna
ark
fishing
##igen
1929
cher
##aled
laur
sure
defended
personality
revolutionary
fried
stem
1911
##ture
teeth
medium
discussed
belg
treated
sic
executed
kon
normally
format
atlant
seas
sympt
##tw
feud
140
ay
stewart
##anny
asian
resign
1931
1922
tenth
carib
radar
drawing
tribute
lob
##ontin
enters
tornado
breat
interstate
resigned
##achment
advoc
difference
melbourne
detailed
flew
evans
arrest
accompany
nielsen
origins
raj
portra
boil
partnership
formally
goods
##iliar
residential
pointed
ethnic
vessel
xbox
aged
synd
clinton
innov
##oen
preferred
afternoon
05
storms
inhabit
glac
##inces
reveals
loop
militia
##sk
##itter
stable
recon
institution
huge
3d
##ertain
prevented
keeping
fung
##vens
forb
manh
cz
directors
tempor
neighborhood
##orous
prosp
apprec
pushed
forty
arriving
muslim
substantial
cha
sisters
technique
marshall
isolated
handed
organizations
samuel
moments
##using
phen
founder
disturb
benn
##arf
exposed
sevent
##otes
partly
linked
fel
##mad
##oral
##rees
federation
avo
turkish
sarah
mall
herald
factory
##vere
designer
tan
##asts
continental
enthus
forec
erect
departed
imprison
instrumental
lennon
existed
recip
grace
pione
##rose
proced
baltim
wedding
periods
frequent
fifteen
mack
##bit
conte
##phy
##bean
##ila
ranking
170
extent
baltimore
insc
mathemat
austria
greece
shock
metro
symp
##20
moral
impossible
dramatic
participate
mail
hunt
occupation
##iner
instance
##inder
concerts
scholar
alter
##spec
initi
seeking
deputy
anticip
taught
##aria
finale
teamm
load
specimens
colorado
nag
cruisers
##usted
apple
turb
##rest
seek
aqu
gates
lawr
oxy
ghost
##ran
##oust
ern
##olas
##olis
creator
newspapers
rarely
amendment
verse
rick
dave
andre
##osing
spending
aware
##music
dir
##uts
smooth
15th
sullivan
ml
friendly
absol
doesn
rav
##ressed
joy
##ologists
malays
##lie
metropolitan
diameter
listen
chase
arena
##away
precip
helic
1928
alab
divor
frederick
##drew
mario
genes
assess
##umin
##obi
pounds
##eu
relie
##iami
timber
lect
poison
##phone
chanc
exhibition
swift
withdrew
picked
permission
pc
procl
joining
somerset
##boy
rates
##sa
upgraded
gab
changing
encountered
policies
cous
jess
10th
affair
covers
inaug
plus
1925
difficulties
multi
inqu
refere
##col
collaps
schedule
##aire
trend
legislature
##anium
suicide
anna
##roke
infr
##ora
##opter
anglo
##idae
advice
miami
sank
##borough
merchant
##hu
##sea
partially
##mi
seattle
boss
pilots
roc
margar
anch
disaster
bombers
adjacent
athletic
1924
turrets
holl
unn
comments
traveled
phr
gap
napole
seed
skull
agree
loan
refers
kl
explo
gardens
philosophy
jar
waves
##imb
aggress
armament
seats
signs
physic
param
07
marry
##amese
proport
plain
1920s
sector
pref
meat
shakes
criticised
danc
iowa
py
mines
rebellion
##chell
soil
##enh
coordin
minimum
eagle
harbour
remove
compete
municipal
##rot
struggle
alabama
soldier
carp
prompted
bom
manusc
overl
mississ
indicate
##eing
bases
caribbean
##ugh
whil
halo
pitched
##inction
communication
destroyers
medicine
manuscript
##attan
surprise
neutral
bros
spiritual
lawrence
branc
string
collapse
grown
enterprise
##isd
copy
teaching
1923
powered
collaboration
##power
yanke
indeed
14th
restaurant
walker
whilst
blow
km2
protagonist
charlie
yor
electron
sufficient
##eland
##uster
##udes
marketing
citing
minnes
designation
potter
ian
stream
fifty
##attered
context
forcing
uncertain
values
multipl
9th
myster
appointment
benefit
paintings
possession
dim
ry
provinc
satellite
approval
##die
describe
armored
ecc
covering
nam
pretty
survivors
##pan
depending
candidates
##nings
check
rounds
understanding
fortress
encounter
pant
dispute
charter
cot
brill
femin
balance
tip
orbit
cyl
##ascar
##gas
bowling
capit
benj
nazi
oxygen
01
##usal
villages
situated
hamp
brun
travelled
dollars
hungary
controll
displayed
articles
pine
listing
victories
minimal
rit
survive
violent
dock
australians
##encing
priest
software
serial
symptoms
jok
christopher
playoffs
closing
diego
reconna
legislative
sib
telling
dancing
wake
##rom
ski
belgium
prol
sugar
funeral
earthqu
shakesp
gear
assisted
amongst
nad
forests
clock
helping
alive
interpre
riders
shakespear
hipp
publications
benjamin
acted
##ni
cargo
michel
marks
eliminated
asks
monster
degrees
##avery
poems
battalions
behaviour
bot
monitor
guil
rugby
concrete
##ecraft
alfred
drivers
reconnaissance
##velt
simpl
purposes
colonies
1905
1908
##yt
pron
1909
tomb
administrative
##atus
fatal
circumst
mason
##car
pars
occasions
##jan
compilation
repairs
roose
quiet
##iller
statue
##uits
vietn
##elle
blind
alcohol
vietnamese
crus
lists
tang
03
inland
attendance
minnesota
##ouri
11th
ric
voiced
mental
##esses
abilities
preserved
21st
cannon
grammy
##sky
pool
publicly
hong
sick
anime
##inals
console
04
##gate
manhattan
105
illness
franklin
kin
organisation
##ographical
##lev
export
##agen
##uman
preparation
defeating
kurt
125
horiz
wider
communications
argument
businesses
trouble
signal
roosevelt
touring
##otten
jet
##lus
elabor
##imeter
recurr
dc
sas
##ounced
residence
highways
##rain
##sex
1907
##orph
##uda
##mo
coff
##rum
##lyn
dollar
surge
proc
icon
##ivated
ammun
backing
telegr
fallen
vs
resumed
##atherine
alignment
164
montreal
bureau
##kel
archb
thinking
##acle
flights
kansas
competed
mississipp
##ras
believing
opponent
spar
##ishment
nash
counties
signing
crews
##aun
intensified
ammunition
documents
subjects
assists
portland
##ulating
amate
genetic
alternate
##fire
willing
biographer
dri
friendship
walking
interesting
ceremon
atomic
usual
audiences
excav
cinema
usd
abol
destro
strategic
deliber
forg
liv
doubt
suitable
woods
feelings
engineers
rush
##emen
curt
pic
noble
saturday
##chen
165
select
provincial
radical
##ensions
chand
airborne
##point
tribes
ownership
completing
percentage
guards
functions
vinc
waiting
submitted
##donald
goth
ther
autobi
alexand
explosion
asking
underw
loyal
pearl
tast
charity
disord
chest
##itated
artistic
##iveness
behalf
ramp
scor
hook
adopt
guer
tenness
shakespeare
nit
stick
lex
polar
retail
hindu
chronicle
shaw
##ifer
evolved
campbell
##odore
quad
por
##oto
revenue
ted
frust
registered
##onymous
rice
retrie
##ods
false
birthday
dimens
wire
##ader
cartoon
remark
obv
targets
##ova
##dale
steven
hole
lucas
suspended
nep
mik
butter
reluct
movies
borough
poorly
favorable
pup
ideal
egyptian
margaret
mississippi
hob
heading
forth
warren
cass
comfort
##elli
pace
stevens
civilian
##gression
guilty
frig
migr
measured
replacing
stores
josh
cliff
liked
solution
boundary
##reck
offering
tennessee
lakes
missouri
aimed
underst
armies
360
louisiana
brick
carn
provision
expensive
1906
acceler
##azy
##inea
palest
##fe
engagement
shells
simultaneously
##iac
##lec
##lah
rocks
mush
clearly
osc
aviation
1904
temporarily
ze
feather
galax
##bu
shipping
execut
filed
##athy
recognised
sequences
##uable
craw
billy
##ski
stu
monaster
asc
gene
##yon
represents
vulner
tox
agriculture
philippines
wore
gran
##enna
readers
saved
##din
coverage
mitchell
storage
wants
chel
harvey
##ige
##rix
recommend
essential
remnants
clin
err
sket
kirk
phoen
talent
pok
cancelled
patterns
coinc
mining
propag
comparison
##oming
blocks
##father
subspec
karl
surgery
tight
phone
spotted
coc
faster
##ante
perspective
institutions
matters
aside
##essive
continu
stern
##ribed
reflected
protein
dogs
graham
practices
familiar
suggesting
contributions
furn
wasn
##issions
##ylan
empt
maneu
lesser
czech
##life
notice
application
thirteen
fastest
overseas
##ctic
globe
hunter
parent
beauty
bah
mys
roots
ariz
rebuilt
ranks
##iary
##bal
subspecies
destroyer
predomin
pulled
anat
##artney
vertical
toky
115
furthermore
crystal
skel
shadow
jobs
satisf
sult
drugs
archbishop
escaped
exclud
cuba
decides
strict
flagship
amounts
slaves
oliv
wicket
##sters
##ss
upr
##bra
cave
allmusic
##estone
triang
intellect
##uces
autumn
panel
lacked
##vereign
sovereign
bombs
drove
tamil
##icul
expression
quarterback
confederate
euro
##anche
tale
spider
subur
swit
sq
##rator
cler
##kshire
badly
conspir
##urally
assert
##fr
unex
marie
severely
controls
argues
biography
##hips
portions
bulk
indies
distinctive
##unc
persian
nik
printed
173
coron
striking
toy
arizona
##utt
starring
godd
tort
earning
observations
sony
bald
##mat
summit
##nie
characterized
condem
restricted
##unes
orth
planets
liberty
101
inhabitants
dylan
tack
wish
constitutional
##bec
spend
rib
mainland
##ieties
guitarist
bonus
phenom
lt
##lings
visiting
excellent
ranging
definition
##inations
##idency
chick
sitting
vast
##equ
##fish
##oga
revival
wilhel
ferry
plut
jury
fixed
vib
wine
maur
holiday
wait
explain
squadrons
tiss
ms
##fa
commanding
explains
pill
meetings
threw
acoust
dominant
spac
marvel
bone
hav
174
ultimate
parliamentary
rings
statistics
nominations
athletes
oklah
metall
bombing
fault
ambass
amateur
artific
demonstrated
danger
illegal
##cements
educational
ticket
arrive
broadway
mrs
arist
coat
founding
##owed
hidden
yield
stere
carriers
murphy
comed
abund
rook
pm
cruc
warship
experimental
8th
consol
artwork
dust
rever
flower
switzer
vii
predicted
heir
##tha
aerial
talking
northward
reaches
##ensis
barry
slave
predict
prepare
census
push
##asa
##storm
beam
grave
steps
switzerland
1901
pyr
##oh
joh
peaking
declar
overt
feeding
conscious
tru
abc
ballad
len
subd
berg
amy
symphony
mate
apartment
conversion
dread
accum
households
liquid
lon
disagre
millimet
oklahoma
bach
austrian
02
##uations
155
seriously
baker
feels
patron
audition
bour
lanes
##eled
innoc
rio
##onian
backed
choose
wells
delaware
useful
layer
laugh
##ika
sig
repeatedly
swimming
eve
1903
predecessor
##aro
copper
bod
##stit
obtain
sole
preserv
westward
1902
lithu
##je
thanks
considering
##uma
perry
physics
##imen
circumstances
##urer
tokyo
patt
rico
vig
##isp
todd
attained
##rh
##opp
delivery
ale
duo
leslie
fasc
amph
hog
##icut
congreg
perceived
consequently
pages
##umps
mini
madag
looks
melody
bernard
millenn
##anger
bones
subsid
revolt
stones
valuable
improvements
ask
##riptions
##lined
##oned
sunk
pole
compens
remarked
flowers
jonathan
##iders
airlines
cord
denn
hann
battlec
towers
guar
personally
rihanna
atlanta
battlecru
kam
denmark
engage
promised
spart
barn
retain
edwards
juan
##rim
musician
renov
tactics
landscape
johnny
nixon
theatrical
##shore
execution
168
ment
manga
##inian
extract
ral
strengthened
##iy
travels
##mingham
enlisted
kids
yu
##grad
demands
explan
##apolis
mechanical
sixteen
profile
qualified
isa
##ello
##onomy
ov
funny
arnold
raising
rut
campaigns
aggreg
airfield
rede
pitts
succession
burns
mant
papers
illustrated
##orship
demanded
turret
mong
overw
garn
nut
waste
##bard
compounds
elevation
sak
##estyle
interpretation
##di
worship
baron
##rows
##bird
insisted
jimmy
clothing
extend
electricity
blu
keith
orn
m2
##mith
bak
##rome
membership
ruling
mirror
canter
judg
phoenix
##oons
##uctive
caps
##erb
glee
wis
gentle
hood
ruth
beats
tales
##esty
dressed
rachel
##arth
##abs
struggled
lying
resol
fewer
##ghan
settlers
sung
tig
hybr
oblig
passion
trading
insects
fis
166
increases
dawn
##enz
##acked
paras
riding
##lain
encl
persons
demolished
yankees
shift
decisions
vik
stronger
watershed
succeed
meter
cutting
##odox
neu
##gie
109
surpass
fourteen
daughters
birmingham
tracy
unre
removal
##jection
mills
developers
hugh
advertising
obama
##ih
##acre
exactly
culmin
external
##berts
wayne
griff
affect
163
objective
bacter
fossil
pursue
concentration
fate
##folk
discovers
killer
lights
mccartney
##xual
buddh
ced
##lock
tong
electrical
deterior
altered
bog
dy
magazines
bobby
venue
erected
overwhel
warfare
defences
debt
ranges
comprom
mercury
loved
hydrogen
stal
eval
wealthy
hudson
gosp
##nik
exercise
##tle
shak
defending
adventures
##iot
##iph
employment
napoleon
organised
dall
##amer
fold
hearts
##10
exposure
##cles
burial
approaching
##opol
investment
madagascar
rend
jurisd
sultan
profit
establishing
connecticut
leonard
hence
mood
vanc
limits
##iable
##no
guarant
connecting
disl
aspect
##ike
ontar
##adi
epic
##aux
morrison
qualifying
jup
partial
centers
manor
outd
exter
mature
ontario
trick
commentary
gw
friday
isot
maid
raids
##zzle
determin
aggressive
canterbury
##unction
gods
dwarf
##roc
152
traveling
architectural
radiation
##low
markets
##enberg
prove
shorter
announcement
arrangements
##ouver
##stan
improvement
acoustic
##mal
unless
edited
shaft
ongoing
pruss
parach
indicating
tube
cort
stol
volumes
withdrawal
dict
##kh
##mund
##ensively
slavery
survival
celebrated
permitted
armoured
nurs
##ingham
sciences
appropriate
##ifies
acknowledged
precipitation
bomber
silent
##efa
graduated
discussion
preparations
stationed
putting
extrat
recovery
kills
dubbed
dissipated
rus
initiated
realized
honey
##ci
##rine
##etta
##itorial
evacuated
photographs
uefa
##arr
voices
hosts
translation
wool
##bow
extratropical
##itis
fract
hardy
hypothes
fleming
graduate
placing
##anz
##uese
gary
##aig
industries
voyage
vancouver
##ao
requires
rehe
172
harmon
mcm
attitude
wreck
##hard
truck
vamp
##hers
originated
sanct
climb
##itudes
reporter
youngest
echo
##hous
##amental
##caa
##roph
sut
edin
confront
##feld
##oven
jupiter
angl
affili
exclusive
strongest
specimen
referring
burning
tubes
tours
pakistan
supplement
transit
colleagues
endors
donated
##aser
regime
expert
devast
estimates
minority
perp
##itively
exha
parody
##autical
tna
æthel
knock
promotional
indicates
conventional
decide
closest
bradman
axis
portuguese
drinking
104
eug
bearing
trough
visits
recall
##pled
luke
earthquake
heaven
users
alice
guinea
attending
southeastern
gathered
signature
density
kap
##ivation
scattered
legit
supplied
##ridge
morph
territorial
facult
lawyer
programming
rp
dwight
challenged
cousin
artificial
gren
diff
merely
traditionally
##iar
1893
identify
achievement
cruise
outr
devil
emphasis
concentrated
au
##uration
screenplay
collapsed
cash
##adier
principles
democrats
cotton
##dle
##imented
overlo
governments
loud
annually
1896
troub
photography
hey
##ipe
##ori
alpha
predators
oliver
optim
lac
pam
prices
hampshire
edinburgh
ncaa
mosc
##tz
offense
indigen
##case
provinces
applications
sacrif
alg
prisoner
celt
seized
coalition
competing
chemistry
declaration
uranium
350
failing
reflect
accompanying
afghan
reverse
pond
portrayal
topped
##anton
stuff
pall
##agger
roberts
smart
sending
veloc
portrait
beng
##otte
universities
1898
investigate
quebec
chord
monte
tenure
rangers
111
talks
kos
output
broadcasting
##inter
##aks
reinforcements
revenge
choir
terrain
terminal
experiments
certainly
sonic
sharks
beneath
apoll
nu
##iti
##icity
guid
dual
hitting
##ieth
recurring
ibn
lip
##igible
lords
consolid
indigenous
juven
ralph
hast
flooded
jama
yam
voting
victorian
##oa
spaces
penet
bosn
reconstruction
masters
argentina
branches
tap
neil
maya
127
hyper
volunteers
lav
questioned
yorkshire
nerv
##ellation
obsc
historically
virus
ceased
decay
##owski
drown
antonio
proclaim
dors
orle
strange
contribution
bann
texts
jerry
##idal
craig
##hammad
assembled
songwriter
mull
spy
christianity
conce
revised
egg
tribe
impression
components
commenting
mend
therap
stops
##rik
imagery
cable
stamp
1940s
reduction
drummer
gaz
turner
devices
##atra
glen
nice
reorgan
##mania
reducing
unclear
infrastr
immigr
millennium
serge
##ception
underwent
reward
replied
destroying
cav
grap
1899
duration
bub
component
##vi
trium
multiplayer
##ista
collins
fulf
consistent
##angel
bend
marge
howe
##ayan
patients
identical
##pler
##ologies
approaches
proposals
bench
gaming
intervention
ruler
daw
##soft
108
samples
##haw
partis
finland
requirements
ambassador
traded
lloyd
corrid
chess
##active
rena
sings
humor
orleans
frequency
arrives
lifetime
buffalo
redes
supern
surrendered
queensland
mond
##uki
reed
##atever
spoken
##itary
##ensed
winners
##oting
researchers
169
dak
wii
whatever
romance
unw
norfolk
platforms
cros
conceived
vern
robin
representation
ferr
##andy
##illes
burton
hawaii
rejo
distant
chore
turkey
nicholas
warriors
belgian
prest
practical
conquest
banned
##ycl
##ugu
connections
bin
fed
exclusively
bennett
celebration
##place
suddenly
pas
finance
stef
springs
tape
compound
commanders
faces
bast
crimes
fi
continuous
rebels
collections
##gom
resur
varied
praising
gender
##uras
marines
flames
progressive
vl
##ibilities
competitive
vincent
cel
manif
invent
burned
thorough
mansion
catherine
fern
##utor
lighting
worn
abuse
prix
shoulder
pod
reviewed
speaker
confidence
significance
bind
lux
##upp
plaza
taxes
camps
darwin
translated
hughes
sample
guild
advised
considers
peters
davies
donald
##ecution
##phal
reactions
weigh
##itarian
presidency
districts
witch
##iciency
boilers
##hs
##ethel
dischar
eleph
mim
1897
shares
sailing
vulnerable
medals
##ffield
proceeded
scores
elite
handled
presentation
judges
saxon
##acles
opportunities
ds
106
understood
fo
harvard
gif
##erning
##ellor
filmm
ministers
oslo
pairs
companion
intersects
##uating
seal
geoff
phrase
trig
racial
crops
enthusi
peng
##olds
foster
flows
swiss
restr
fairly
observation
nautical
##itely
stress
smoke
cameron
bombardment
infrastructure
exceed
167
descent
rocky
##gi
traditions
marshal
rivalry
cards
proof
uncon
assum
manufacturing
unexp
kan
petition
grossing
##irm
moscow
kate
exile
154
cleared
pittsburgh
mp
vital
##igs
respective
rehears
##rehens
explicit
eis
numbered
extending
protests
commissioner
113
ip
mckin
hide
##ls
##strong
transported
knights
indonesia
reinforced
random
unlik
intermedi
extinct
drink
skill
drain
cuts
##pike
gest
toured
terry
153
cosm
mystery
boom
characteristic
nonethel
structural
nonetheless
exists
participation
toler
##urst
ic
alaska
fee
gift
kane
tiger
rodrig
tonnes
rivals
theories
relatives
commenced
cyclones
##rov
##ario
##emon
maintaining
turnpike
victim
answer
navigation
clan
troop
telesc
##berry
canyon
##aha
restore
wallace
absent
dil
bert
eating
##hum
##erce
relocated
airline
convey
tested
nord
##nought
##ours
reforms
##gle
spong
editions
senators
microsoft
inquir
preparing
##wing
monthly
panzer
bib
jtw
withdrawn
honours
jtwc
cott
hollow
warnings
decorated
pse
tai
##cott
emer
syria
##minster
##icing
shep
empty
tract
##enger
1890
tyr
##illo
upset
##ettes
unexpected
##ashes
concerning
mixing
republicans
##world
magnitude
israeli
displaced
##eto
clothes
writings
amazing
##oria
sheffield
manip
dum
##inge
coaches
blo
mythology
fitz
idol
interviews
dying
releg
larry
hurricanes
answ
##rooms
171
lightning
pock
##onsin
milk
1895
jefferson
variations
telegraph
learns
interaction
archaeological
##fc
cole
johnston
commercially
grandfather
advertis
nev
emmy
displays
ww
##atis
##isive
doors
##ashi
interpreted
courses
arguing
essentially
clarke
##oda
bryan
airing
corporate
dreadnought
dallas
pseud
desper
confusion
flex
salary
chambers
drift
ky
ub
demo
guerr
parkway
villa
##adesh
heroes
tooth
##aman
constitu
blocked
golf
aft
carries
lover
faculty
gon
cry
embr
102
variation
cyrus
dinner
##hell
volcanic
##isons
meteorological
duch
vit
colors
##beat
segments
owen
austin
swing
chen
##lington
costume
myc
internation
colours
##mers
shifted
reh
##cester
emotion
parsons
aber
acre
circular
accurate
regiments
sponsored
malaysia
sega
121
fbi
prel
corp
valid
sculpture
unlikely
stall
lag
##uz
suspic
shallow
##lane
##rams
##enson
angry
opposing
danish
pent
boulev
wished
worlds
tint
xx
##avia
lasting
breaks
cattle
##onica
armstrong
ties
##hal
interf
bible
hes
intr
brazilian
lud
oz
##keeper
162
divorce
heavyweight
surprised
chelsea
fert
steep
rect
commerce
macar
principle
dancers
rebel
sustain
tir
stim
snake
tickets
revel
enact
newton
wart
##star
diverse
constantin
kaiser
recreation
ecl
hammer
deeply
abu
examination
diplomatic
gamb
##atched
northwestern
##ussion
orient
tension
##rating
##asters
crazy
biological
girlfriend
liner
prosper
lift
peas
inclusion
neighb
##run
##yz
sheep
naming
till
plum
opens
forecast
pursuit
reich
ivan
rebuild
travelling
drafted
wilhelm
stolen
##enon
infer
advancing
dioc
rifle
disturbance
mcl
##pin
negl
caes
beck
hoping
susan
##ho
canon
happen
##wright
rou
##umented
158
sporting
mg
beating
##udi
processes
##itate
directions
blacks
ratio
##osexual
promise
ine
##iko
utah
muhammad
settlements
parachute
substitute
##abilities
harold
serbian
insurance
monastery
mild
parad
villain
hamlet
civilians
yout
locally
quarters
taste
##nell
gamesp
richmond
fifa
funded
challenges
hd
charted
ion
pump
161
streak
potentially
beaten
1861
gy
scientology
cox
benefits
knows
1889
sentence
altitude
##ht
##itious
chile
manage
scandal
proportion
merged
rookie
bry
dense
##vised
delta
equally
##enos
afford
disb
evident
participants
columns
veteran
rains
##enter
offshore
1894
error
options
kidn
cbs
administer
nova
constantine
##landers
explaining
jurisdiction
runner
perc
outf
persuaded
cs
xii
whale
recept
requiring
##affe
tyler
youtube
knee
memoir
verte
boulevard
resort
followers
1000
##onium
similarities
1891
##castle
apollo
va
##eenth
##asha
educated
borrow
stuart
##cul
pitcher
farmers
dece
socialist
pregnant
##reated
judicial
bic
##ampton
divine
devoted
gaining
leop
156
witnesses
reef
counterp
brooks
reservoir
implemented
dreams
paraly
operates
dug
tuck
detect
wildlife
veterans
accommodate
persona
links
proteins
initiative
forever
addressed
##master
##ju
##ometric
keys
categories
oriented
disorder
tools
sean
massacre
boundaries
1800
blast
prototype
statements
indonesian
bent
nose
135
complained
##uches
1892
feared
blend
##piece
##ocation
strikes
virtually
anarch
amid
112
cardiff
##far
studying
nickel
favourite
aa
##essing
##boards
conspiracy
##aters
sox
tempo
odd
tactical
keen
weakening
aar
##mont
wisc
flav
240
johann
threats
galaxy
bore
kyle
explor
palm
hostile
tide
##heric
dealing
montgom
fier
##hill
knocked
##izer
danny
##pine
rocket
honorary
goddess
##osph
rider
##usalem
maps
trapped
marit
gothic
##rific
soap
islamic
gospel
##imp
stretch
hed
##ether
org
embarked
nur
##nels
thrown
myself
##rates
##erver
preserve
##osaurs
fires
extensively
tune
sized
highlighted
jerusalem
nan
justin
midnight
1870
tribune
##anne
sentenced
nights
##gow
##aco
##assed
citizen
##ashing
rey
usage
boeing
schum
teammate
tigers
wisconsin
##othy
documented
conflicts
macarthur
##roid
##backs
provisions
montgomery
trio
honors
machin
politicians
wes
resolved
photo
hybrid
partners
2000s
abroad
tasked
##vo
remote
bund
barnes
tourism
saturn
obvious
explore
easter
ordinary
lacking
velocity
hul
rip
##inis
discontin
pierre
renewed
hurt
##vet
complement
colored
orthodox
reass
scholarship
##ais
user
rescued
beer
telephone
beliefs
##eda
conj
##istent
barbara
fol
tent
authorized
competitions
rogers
dimin
lamb
intent
recruited
cats
rushing
##aments
helps
battlefield
separation
encounters
escorted
##ando
scots
offs
guests
receives
frontier
##iciently
1888
regardless
##fly
inhib
housed
considerably
isn
brigadier
darkness
vin
##gins
enabled
debr
prayer
##pert
defenders
prospect
chad
crashed
##ulsion
imprisoned
elaborate
##ackdown
presents
ashore
trailer
garnered
spo
1885
suspension
stein
bills
sinking
##enburg
tol
handle
pupp
pursued
confident
icel
##ean
seb
humanity
uprising
jaw
speculation
observer
promoting
##ocene
unve
involves
warships
batted
christians
##anim
trunk
handling
hopes
baltic
triumph
zoo
confirm
depicts
brilliant
##iah
noise
regulations
arcade
evacuation
##cs
inning
chrom
pirates
##ded
glas
breeds
magnetic
mak
developments
organisms
urged
occasional
pand
cum
##sch
flour
remembered
iceland
pp
##cha
wound
thames
##ovak
145
eventual
batteries
internationally
hi
romney
compositions
laps
##izz
suspected
##lon
##aved
editing
boyfriend
impressive
athens
##ardo
dozen
loose
ace
backst
castles
1865
owing
license
tissue
aest
booth
159
capturing
ensemb
978
thunderstorm
reagan
railways
mixture
chron
slav
117
truly
agu
cardinals
isab
##unning
relation
sherman
dat
distract
nato
crest
thereby
volt
##hou
lyrical
politician
rendered
lions
##eno
nancy
ingr
shah
associate
chamberlain
chancellor
intellectual
restrictions
disappointed
horizont
pyram
##cliff
consumption
updated
counsel
balls
mechanism
mutual
decreased
inherited
ost
##inus
positively
customers
##isition
##ublin
marking
##urd
organic
pec
warned
genu
burg
volunteer
anticipated
wiz
upcoming
tracked
antib
styl
inhab
amphib
apply
contracts
450
mammals
##essors
spokes
dependent
##gary
delegates
helicopter
##phan
directing
118
switch
ernest
oscar
##oys
114
auto
burst
accidentally
##ipher
newcastle
southwestern
detective
gau
##igration
elli
invaded
conversation
haven
breast
machines
portugal
##itic
##elin
##eta
##aders
##oca
closure
dud
##chi
root
titan
inaugural
constantinople
thorn
lodge
assessment
##idia
grid
merced
fus
lighter
##uters
debris
cinc
pon
rally
##agh
reader
charlotte
fundamental
brut
aj
carr
metre
borders
corridor
tram
pete
voters
bradley
infection
accessible
fossils
nickname
tib
##wald
1864
psychiat
lawsuit
##edia
##asm
besides
##rible
cornwall
easier
occurring
sweep
nephew
reject
beth
antar
memories
hack
##acht
boost
laud
sharing
complicated
peop
particles
sheriff
reunion
##colm
##roe
plates
heights
molecular
feathers
lesb
functional
gabri
supports
prelimin
interc
##took
flags
##ilda
chester
weld
##akh
versus
kaz
remar
metric
vick
avoided
leices
armenian
throwing
krist
protestant
murdered
autobiography
wartime
progressed
doctrine
kenneth
##gett
nem
##enders
northeastern
marqu
malcolm
curve
walt
upl
xi
##uri
syl
##ahl
shelter
mv
imposed
punishment
tier
##press
##view
consequence
pedro
isaac
dale
bris
produces
recruit
cena
noticed
reporting
integrated
##ellar
tourist
depicting
##heimer
resid
thriller
posts
exhibit
##changed
##icon
chop
kilog
intermediate
##encer
viewing
threatening
boot
philosopher
dublin
annex
exploration
##gro
131
linear
saints
tea
eastward
clouds
mathematics
mounts
melod
peoples
107
1862
##flow
convicted
holes
attraction
bailey
ns
crane
hir
sod
##gal
verses
hier
isle
dent
sheet
vicinity
botan
##orf
tob
patient
tennis
ster
congression
heath
shin
barrel
courage
removing
bil
fib
tet
journalists
decrease
diversity
releasing
##oba
duck
sap
##inated
eddie
ignored
sulf
##net
mk
##omer
clergy
blame
cincinn
tommy
sear
luft
undertaken
220
apolog
constantly
spell
anthem
expanding
hok
##aneous
facil
camb
##itty
132
legion
touchdowns
157
realistic
eighteen
dolph
twitter
##ints
serbia
predominantly
pend
##mel
remind
alberta
congressional
##fast
fortune
springfield
warrior
##held
focuses
##aping
martial
##rosion
grows
coaching
cage
mam
incred
generals
twentieth
spur
usher
parking
creature
contacted
leo
joan
barrier
mccl
propaganda
aux
103
measuring
enorm
centered
independently
teachers
disappeared
sacrifice
pont
##nan
cream
gibral
muslims
explanation
aub
arose
sri
##umped
##alg
nept
couldn
doctors
gibraltar
ig
stability
pleased
sacred
##su
##inz
##olia
unh
metac
micha
mask
sentiment
relieved
monsters
speeds
locomotives
yugoslavia
maritime
m3
##rent
estates
malta
bulgar
fragment
preliminary
jake
bee
shiva
asserted
canceled
collaborated
wagner
brah
lan
##ulus
compiled
inducted
discour
situations
gravity
friedrich
saving
chuck
herb
maine
scientist
layers
celebrate
absorbed
##ortion
worse
ups
enhanced
exterior
##iture
##amine
paying
bullet
focusing
##avan
oxid
taiwan
cincinnati
roster
tum
##ocol
genres
quadr
aur
maced
watt
parade
126
networks
achiev
reiss
roadway
cinemat
varying
##hall
continent
browns
angelou
##rolled
subtropical
aided
plains
ware
##add
incidents
beta
betray
publicity
julian
##ema
##regular
discussing
scouting
##omed
irregular
normandy
targeted
appeals
ritual
lope
leeds
1887
creatures
atop
119
##issioned
dislik
regist
vegas
fortifications
resignation
tensions
##acc
tough
##rogen
madison
elevated
fungus
afghanistan
##gent
summon
concepts
submarines
acclaimed
treasury
kitchen
dive
##omon
transc
gregory
marched
confused
positioned
olivia
##agers
edmund
##aughter
1880
swept
##rac
critically
1863
dropping
preceding
transmission
leagues
##assy
helen
burke
1886
anchor
compromise
bold
##yll
##thr
chi
smoking
corruption
mechanics
capitol
##orious
##adal
pover
viii
arguments
bonds
eagles
fare
##tra
lopez
lig
ply
gig
mentions
##hart
##agi
spots
athletics
##umberland
mushroom
schumacher
proxim
mega
glad
brigades
spacecraft
suggestion
brooklyn
venture
poverty
jna
ske
stored
worker
managing
grove
##eon
##instein
orton
subc
farmer
iran
hass
theodore
marath
devot
##ritic
##imony
conced
trap
adri
flown
##icking
##ront
bars
harsh
missile
orchestral
condemned
princeton
corresponding
dennis
eman
widow
aria
bug
##found
##nda
bru
grim
epit
##aja
##acular
stair
spaw
122
sailors
rotation
migration
mckinley
fing
physically
walks
atmospheric
sup
blamed
moist
caf
inver
pride
phyl
purple
mlb
butt
delight
challenging
##alt
trem
nasa
ceremonies
##zac
detected
participating
montana
preservation
loaded
knowing
torpedoes
consciousness
disbanded
nass
trump
obst
mock
##mates
##asia
retreated
slam
postp
1884
fluor
mouse
##actic
barcel
gusts
hubbard
achievements
finger
button
messages
composers
instructions
##ener
flesh
inhg
assassination
dol
##agg
steadily
glasgow
chan
marl
darker
emerging
variable
spit
comprehens
amp
24th
calculated
##usters
canucks
distinction
electoral
maple
alert
ants
disabled
belle
bitter
singers
reserves
herbert
engr
convince
config
rebounds
mour
summar
pilgr
seeds
brings
quoted
endang
##sy
##atar
sue
poster
prosecut
songwriting
vegetation
absolute
whales
finest
venues
opinions
cooperation
mysterious
##areness
agencies
flot
indirect
##aku
tril
solely
examined
phillies
gunn
naturally
walked
printing
ascend
commitment
pocket
##dam
bra
austro
favored
smackdown
graphic
bce
ib
modest
tintin
depot
radius
renaissance
eligible
conducting
unt
##iev
remake
themed
##roscop
138
demon
motif
extraordin
celtic
mercedes
##cia
isles
##ulates
westminster
everybody
priority
beau
athen
phon
bark
screens
1877
##ws
##ishops
230
saga
##onso
##lem
##abad
116
authen
hym
awareness
aids
gym
curved
theaters
taxonomy
##itals
ard
poe
volcano
pokemon
nok
##hop
pray
##ennial
demographic
homosexual
logo
genesis
##arded
decisive
tracking
denver
penal
1876
consideration
fragments
posthum
ing
reminis
farms
rounded
essay
spectrum
##iens
alam
##abe
tool
##aba
manning
manuel
efficient
comparing
newfound
elementary
prompting
chal
unoff
albany
134
##icus
afterward
129
angles
heavier
gast
##iors
consens
glou
temples
contrad
accomplished
percy
playable
ronald
yd
performers
refuses
privile
expectations
tourists
connects
searching
shopping
dynamic
bulgarian
virtual
agrees
##umbered
commons
nationalist
psychological
consequences
municipality
berm
confer
graves
##izers
signals
routing
listening
ottawa
proclaimed
##hin
possessed
commentators
surprising
seam
##reeks
drake
brien
comprising
carlos
ensemble
##isations
cubic
nevada
gem
opined
encomp
refugees
##tains
##season
butler
abra
likewise
intelligent
sensitive
discipline
sergeant
pioneer
procedure
frigate
rational
sans
milan
width
deer
centimet
phosph
verd
kilometers
##esis
relev
outcome
depiction
insuff
payment
ladies
##istical
exercises
##zes
##onaut
properly
celebrity
deposits
guit
transformed
barcelona
dome
1875
chiefs
emotions
executives
michaels
##anka
reluctant
gauge
##rians
enix
strings
123
keyboard
file
popul
adjust
deliberately
##acing
landmark
routine
weakness
steady
##ti
colin
complimented
barracks
formations
##atty
underwater
metals
mast
sul
ceo
jets
extends
bowled
contribute
latest
churchill
processing
farming
raymond
banksia
anger
blog
varies
romanian
photos
lamp
pere
unanim
1883
tribut
fears
philosoph
enlar
loyalty
##eding
emma
##iology
inex
spite
estimate
gathering
##ighed
alumn
accus
contributing
guitars
hab
##nn
##etary
onwards
sting
chains
##orted
clip
poles
millions
collecting
silence
contempor
paralymp
##reen
##iki
1881
joke
##yers
blair
middles
complaints
diseases
instrumentation
kum
orche
lemurs
vest
input
staged
patch
funk
##anted
151
richardson
coffee
##rin
vocalist
##appa
consistently
expressway
##lake
heb
proud
venice
locomotive
stabil
assets
berkel
lancash
phenomenon
herm
revealing
jamaica
pix
powell
beds
symbols
gale
##oric
##rection
clause
##ampa
burger
1869
permanently
belonging
rays
duncan
advisory
nervous
128
detachment
calgary
cameo
sandy
theoret
lancashire
chlor
damaging
improving
ferdin
eruption
bever
environments
staying
stir
##iper
preventing
manifest
##lu
##atern
monk
1866
henderson
unaware
criter
disputed
telescope
eb
floyd
libert
politically
acceptance
jumping
hypothesis
##oning
ana
chapters
habitats
percussion
orchestr
midway
lessons
faction
wanting
requirement
202
##quet
sixty
750
interactions
dimensional
switched
erupt
rag
##omys
colleges
costumes
fantastic
witnessed
referee
holland
retrieved
##hend
##adows
frances
##riages
carved
tradem
##arthy
anx
objectives
blockade
consensus
##assic
argue
dispatched
ceiling
pleasure
##chw
trinity
reson
genera
slip
angels
encourage
publishers
eccles
crawford
bacteria
veronica
ellen
redevelop
wheat
circles
derby
syndrome
fraud
actively
adaptations
immigrants
ling
mold
nak
##hening
lengths
fart
convert
grants
124
unsuccessfully
leicester
##zig
renown
##igo
destiny
homeless
belonged
judgment
accol
channels
abundant
ally
hemisp
hect
sag
reop
suffer
digit
##mill
##alia
hep
allegations
fischer
tucker
glory
palestine
mbar
##enues
adela
tasks
##ijing
##imer
ank
loves
distinguish
teenage
absolut
dudley
viv
introduce
patrols
nicknamed
paramount
perpet
cong
membr
1882
eldest
##stown
britt
diary
explosive
advocate
cylinder
outdoor
lava
sho
desired
repet
thoughts
1871
1873
unusually
landings
freshman
naked
##stad
##iang
contrary
submerged
crucial
kas
beast
##boat
bachel
proceedings
innocent
##uan
##avian
##rium
surpassed
flanders
##eo
kepler
cope
roller
##eteenth
biz
wick
1867
instruction
etc
machinery
a3
pt
##eches
shipped
quint
subordin
advocated
chet
truman
clif
adequ
fever
welcome
aristocr
mott
festivals
congregation
overwhelming
democracy
nineteenth
unity
##lude
outl
137
nig
##var
spores
trench
reviewing
horsepower
nests
horns
hil
nh
##urred
diving
manufactured
##inth
stom
beijing
##uez
##annon
storylines
1878
customs
##ovsky
intim
##ulture
watson
malay
fringe
mosque
triangle
vampire
##amation
itunes
explored
hunters
variant
nobel
vlad
fount
rah
##istle
##erness
macdonald
eleventh
endangered
kem
##waffe
mccarthy
ful
##atural
##tery
comprised
unveiled
speculated
averaged
gibson
dorm
##olith
newman
index
radi
zones
##rington
spectators
turbines
ferg
##inqu
##assing
currency
bigger
economics
resemble
wolver
sara
##alid
geography
literally
rams
sect
grain
undertook
pounder
shirt
aaron
og
##urg
##chan
shan
guadal
trips
##heads
platoon
dissolved
pla
defenses
##enne
iw
lp
wer
strat
meyer
fairy
horizontal
prostit
trent
compact
relating
damages
coastline
fights
lengthy
trigger
bout
lone
rushed
##arus
ineff
mick
interviewed
aston
stripped
discussions
athlete
chaos
metacritic
anonymous
ensuing
##yright
editorial
enormous
ming
ras
oral
manages
overcome
copyright
installation
baptist
u2
##bach
##ystem
##anas
stroke
wellington
honest
luther
cec
##pit
##ido
##employ
##keep
##otypes
coral
swamp
admiralty
##omes
extinction
robb
merchand
aguil
fusion
wander
##iri
monuments
bermuda
hond
##aren
##ographed
##gener
maneuver
wishes
##cr
##mother
adds
silk
bankrupt
shelley
intact
relied
1860
lynch
luftwaffe
leather
relay
monroe
laf
destination
henri
trilogy
raz
##asaki
brew
awa
qualities
otto
engaging
mistake
riley
##hd
##lew
cultures
battlecruisers
adelaide
##uke
deals
##occ
marx
advances
1868
1872
fluid
jail
##lys
outs
revived
selena
powder
##through
gains
##hand
##overed
proceeds
aguilera
cere
quit
toxic
##ounted
lifted
harvest
photographer
nomine
curtis
##appy
feminist
coronation
##van
weighed
instructed
##monton
grossed
summary
reminiscent
unemploy
ellis
successive
glam
soviets
lemur
dere
##oves
soccer
ai
nab
##anto
yok
rapper
aliens
batsman
sketch
aus
bishops
##olo
incompl
disgu
kay
enrolled
phant
dakota
fm
deeper
arctic
leigh
masses
screening
merchants
pengu
dart
mann
interference
termed
dealt
intersections
appealed
maxwell
grammar
chandler
tin
##eries
##asses
##endar
bread
25th
planes
disputes
rumors
phillips
gamespot
slower
ranch
##cock
suited
newport
undergrad
hanc
trace
ug
busy
##neath
quantities
gle
wald
##bery
##ubs
analog
investigations
riff
##gon
##origin
arbit
disrupt
assign
barely
symmet
privately
gorge
bik
vas
separately
joins
package
thickness
geoffrey
wwf
authentic
ferdinand
retros
insist
curves
floating
inquiry
dad
sier
##kar
panels
exhibited
gonz
item
adrian
##obile
abraham
shoo
blank
barrett
imported
conting
surrey
133
realm
casino
essex
ecology
##bus
conform
##alling
coaster
subsc
##ologically
rulers
kub
mobil
eugene
disliked
spencer
developer
delays
involve
custody
licensed
nobody
cylind
expense
magical
electro
moor
anthrop
therapy
plymouth
##eli
unrest
supporter
romans
1850
dunge
deployment
redesign
ria
madrid
robot
puzz
jeremy
molecules
plutonium
##wig
##elia
##inted
##aurus
luis
cla
warrant
deton
tribal
mathematical
proximity
kot
##idd
##issa
ump
##acon
##imir
genius
caliber
lyric
escal
pavil
alk
plastic
##eased
calm
##writer
cardinal
chin
pled
contested
underneath
operator
experts
pedest
marcus
kerr
dh
##bt
washed
secular
presum
rockets
descendants
comet
collision
##otting
captivity
associates
repaired
ltd
bosnia
##anga
monks
protecting
acquisition
##kinson
daniels
mvp
fergus
fog
verm
projected
interrupted
motors
romania
floors
excessive
hancock
limestone
floods
irre
bengal
##unct
mck
sebast
oval
##aching
##opsis
florence
coloured
automatic
hak
rent
neo
allocated
thrust
wrestle
fabric
tran
keeps
comparable
lunar
delegation
pronounced
lil
nl
wise
maybe
totally
ruins
immun
seemingly
strang
norse
invented
tunnels
restaurants
baldwin
maiden
herge
cres
edmonton
survivor
porter
##ichi
ballet
##vent
##athetic
##ishn
arkansas
flotilla
##nut
vienna
acquire
reflecting
##rist
jennifer
reel
preston
domain
demanding
miner
fatalities
chicken
pagan
vault
##xide
leban
undergo
architects
evolutionary
extraordinary
bachelor
luck
##osity
##aceous
mcdonald
lobby
tear
##entine
twelf
crust
publish
populated
modifications
climbing
twelfth
nes
shops
1879
franco
immigration
rer
wors
nun
muscle
operas
struggling
neighbouring
shank
twe
blake
quart
lifestyle
##guard
fierce
forts
suburb
generations
savage
crowned
interactive
scrapped
discontinued
lesbian
##list
minogue
##aze
embassy
demonstration
accomplish
auction
tul
merit
mccain
demonstrate
unfortun
paved
elephant
ses
skinner
seventeen
archer
141
bowie
garage
kle
nost
##irts
reyn
academ
descended
administered
kor
enforcement
dirty
kes
##urbed
janet
torch
hawk
speakers
besie
hawaiian
pyramid
worried
perth
regained
146
halted
pierce
##ellan
artif
suburban
clerk
balk
mere
attachment
peg
modes
declaring
liberation
substance
upgrade
rewr
traged
creates
openly
lancaster
pregnancy
hate
##immer
stark
raven
vander
270
diem
contracted
tables
monarchy
newfoundland
##olan
##usive
shack
##grade
scenario
##fu
##fs
##ourt
woodland
elderly
roth
##elines
backup
streams
turks
hoff
ambitious
opted
wonderful
jokes
decomm
biology
antiqu
caution
diesel
ampl
alc
drunk
prohibited
errors
divide
terrest
erosion
jg
pist
scouts
grab
motorway
griffin
##atorial
logan
necessarily
throat
##houses
moz
findings
aggregate
buddhist
jungle
specialized
northwestward
banner
fool
ironcl
ober
##aul
chances
lease
sphere
filter
detached
merger
caroline
rode
##onen
##etus
##odon
contents
invitation
societies
freight
identification
lacks
memorable
sierra
cig
math
arrow
louise
bj
cheer
strengthening
teammates
dio
gut
##iya
##atem
trout
anatomy
dot
##mitt
##entric
##abet
draws
nashville
comprehensive
runners
collector
palmer
kens
ng
metab
149
tender
harper
topic
recognize
layout
dop
jen
stuck
deciding
garcia
synth
remarkable
welf
runway
corners
measurements
allegedly
misc
interfer
centres
compensation
juvenile
swan
introducing
frost
consumer
rodriguez
##cht
calvin
healthy
riot
##enes
emily
surfaces
defender
bassist
devon
observers
strait
legends
diagnosis
drowned
fond
kath
ore
vow
##ui
theft
##icular
dow
##hero
stup
moreover
specialist
painter
suburbs
incomplete
##iop
speeches
doubles
##how
reserved
##ormal
basement
progression
210
##force
hiding
##ovich
edges
generate
loading
busch
hardc
garfield
eliminate
diamonds
maurice
rna
##oland
marble
consent
##inae
realizes
perfectly
drainage
applic
retro
solutions
##ficial
panama
attractive
cater
pian
##etcher
spark
##ovo
##enches
1848
##atan
computers
insufficient
nc
ned
pushing
##bank
spare
claire
regulation
reversed
superman
unpop
conjunction
dian
unpre
evol
securing
##atsu
supervis
welfare
##iche
sufficiently
berry
cauc
cameras
spongeb
cure
ease
ix
lingu
wo
helm
##verse
hardware
catalog
fuck
##ayette
1874
panic
embarr
tonight
bio
locked
perimeter
starr
##holm
##bel
collective
subdiv
##urers
##agic
airplay
insect
choosing
hospitals
##birds
desperate
hemisphere
aster
hod
depl
degener
##quer
jag
##pro
##umi
overth
irving
democrat
finnish
quinn
144
holmes
muzzle
arabic
definitely
##pow
whites
brass
plateau
rape
##ng
##yd
##ndum
scales
buses
rifles
infected
volunt
venus
hanging
moss
##atri
gerald
breakthrough
graduating
windsor
##oshi
michelle
elim
assessed
##osphere
emphasized
lindwall
armenia
serbs
crack
illustrations
jacques
randy
dimensions
weird
guatem
anywhere
aval
solomon
missiles
doug
glacier
preval
diagnosed
##oline
notion
##qual
incons
cheap
competitors
incorporates
dinosaurs
##brook
frustrated
stalin
legitimate
##mons
##oded
koreans
counteratt
pus
wounds
edwin
citizenship
pupils
organs
baham
kom
spiel
stanford
variants
murders
berkeley
##cot
##istically
shipyard
promising
puts
monday
auxili
stunt
spear
overd
laure
coupled
##oft
lineup
midfield
##hester
280
bloody
tiny
##oop
##post
manual
martha
breakdown
olive
mercy
treasure
controlling
artifact
hispan
unst
wouldn
presley
seasonal
ranged
physician
fen
tended
evangel
flee
investigated
accolades
ved
redd
preview
appreciated
comfortable
sunder
plug
patent
confined
reads
circus
##ylum
exciting
drives
northbound
nearest
delhi
testimony
pressed
sexually
cuban
frozen
skeleton
inhabited
suite
blond
##raid
augustus
grandson
employee
occupy
vacc
bare
dish
##ailing
assignment
laying
sop
carriage
statute
harmony
inscription
skiing
unofficial
enable
designers
profits
qualify
ecos
jennings
rhodesia
carpenter
spongebob
elimination
##nor
##py
gover
carefully
connor
satir
reformed
maneuvers
exhaust
genuine
zh
stance
seiz
aborigin
monkey
##rosse
duet
boxing
gav
##ea
##raine
stro
maintains
entertaining
technologies
chapman
1851
gabriel
terrestrial
blown
successes
topics
##lessly
##ishi
proven
enthusiastic
chip
basil
glenn
summers
mistaken
sleeping
hazard
tat
facts
isotopes
bulgaria
absolutely
duches
##oi
edgar
epid
bism
mumb
##ede
##essa
waterline
escapes
procedures
##ocaust
governing
heter
148
defeats
honored
fellows
hayes
ashes
scope
repeat
disappointment
fitting
##30
chim
##ibal
mineral
disco
stepped
hopkins
##iters
##acement
accuracy
sophistic
prose
blade
dinosaur
reconcil
neighboring
suz
##atoes
dign
kang
##aca
plag
protective
hess
paw
regret
buzz
traits
referendum
nurse
civic
momentum
riv
rises
guided
kur
sne
##opters
fletcher
performer
reds
136
graduation
nationally
incorporate
prosecution
unnamed
spielberg
##odia
sha
exceeded
laura
requests
kenny
innovative
helicopters
phylogen
cement
rust
##lass
wash
civilization
pard
brandon
southampton
readily
shale
##onsc
convinc
slowed
bolton
eisenh
shepher
trademark
dup
holocaust
##ophone
struggles
raiders
bangl
philosophical
##isle
atoms
rely
revers
142
affecting
patton
spawned
crom
keyboards
ultr
##rified
unpopular
spani
trails
ves
##yc
##kee
assume
370
fake
##kas
thirds
nobility
imprisonment
rehabil
##bage
##esco
consumed
deriv
suspect
reflects
preceded
##osc
shout
goeb
mcg
concludes
hendrix
tongue
alumni
lia
##oro
##elic
crypt
locate
array
combine
negotiated
##rolling
demolition
##icken
##rews
certific
predecessors
barber
refit
choices
stomach
jin
laz
##ocal
##quin
loos
limitations
synthesis
wals
hein
nebr
distances
grande
gravel
relevant
##aic
##apa
##neum
hammond
argentine
eisenhower
##jar
asylum
realize
lined
capabilities
cubs
stefani
##eit
conviction
ecosystem
bav
font
hutch
ferguson
nathan
posed
respected
climax
##canal
incorrect
sexuality
warsaw
hatch
placement
pose
##olics
##ogical
##auer
eleg
pitching
badge
observatory
trustees
anthology
correspondence
##ripp
cluster
britney
crowds
ethan
lucy
rpg
forget
presc
varieties
infin
jeffrey
doubled
ancestors
sussex
##mate
##hurst
dex
spher
ears
genet
##tershire
willis
260
bust
hanna
vand
##ictions
##group
numer
extant
settings
victorious
rhode
forgotten
##berger
##uctions
acids
efficiency
castro
precise
altog
guadalcanal
##kat
cran
ordin
sometime
morton
columbus
sprint
gifts
altogether
##bul
inade
spike
haun
altar
reynolds
tears
##uates
trin
kicked
namely
inadequ
hort
lean
##oured
fees
underlying
##lies
##jud
##esters
stap
maturity
violin
semif
##changes
theoretical
##icia
highlands
insult
concluding
##rimination
##adic
servants
secretly
excited
conquered
highlights
adoption
endorsed
rectang
fountain
##vic
amino
annie
chec
munich
franz
retaining
terrible
##ipper
countryside
russians
satisfied
unhappy
yes
##len
##rs
adher
##soon
apprent
southbound
slot
goalkeeper
fails
confronted
lithuania
nebraska
greeks
steering
rankings
achieving
schem
perception
emble
willie
fortified
abolished
binding
sou
orch
homage
resembles
recreational
subsidiary
##olly
musically
##lla
pointing
solve
departments
analys
kun
##anus
activated
digest
comprises
landsl
cp
clash
drawings
boyd
eaten
pleasant
bam
dm
woll
seize
formats
accidents
managers
cherry
##iast
##vae
accordance
lithuanian
gir
##iqu
##isbury
##umble
phases
permit
kidney
transformation
coul
yar
relax
##kson
ivy
dorsal
diocese
yang
##kers
##vas
##itating
annoy
primitive
rhys
wrestlers
##ilia
forum
deceased
swall
clem
catholics
orbital
bf
wend
medley
derek
##icas
lois
robertson
safely
##related
concord
ballot
dispos
negotiate
enacted
kre
lighth
twins
albeit
stew
calendar
factions
1859
inherit
ist
##enez
possess
precurs
substantially
nim
##jord
nee
1880s
stopping
chronicles
sg
wu
##vik
spont
totaled
businessman
benz
decommissioned
alpine
##dan
stam
##pling
geographical
goalt
##nip
139
scorer
geological
archives
availability
sparrow
ruther
memoirs
stab
fraser
canber
blaine
joel
1200
careers
sandstone
conception
papal
millimetres
lg
##ders
##ipel
colomb
boarding
unders
controller
resolve
gott
##cence
##avi
effectiveness
shrine
joyce
hiv
##omorph
##uchi
linda
##nas
##inely
##riet
editors
welcom
bened
oath
coch
caliph
morale
motivated
1845
conductor
dys
ket
sz
##eling
trucks
median
magnific
imagination
gly
##ecca
reinforce
abolition
##drop
rept
commodore
salisbury
clearing
##agonists
pollution
mortal
comparisons
conquer
thinks
ancestry
intercepted
sunderland
diction
kann
pneum
##auc
trigg
receiver
descriptions
reproduction
tyrann
cogn
admired
brighton
isolation
skept
fow
##matic
##idel
steal
lawyers
propulsion
introduces
dominican
bm
wan
##oton
bred
operators
captive
inflicted
salam
croc
tendency
accelerated
##aceae
jenna
pipe
acute
organisations
admission
slee
exhibits
rubber
zinc
##oni
realised
whitney
timberlake
manuscripts
celest
farther
sebastian
wang
anders
leis
matched
147
commands
visuals
torres
##agonal
cowboy
riaa
veto
##ieg
foundations
bowler
polls
##iji
gand
abstr
austen
norton
insight
shed
governors
hamburg
pike
denomin
arabian
vat
buenos
conservatives
elliott
undergraduate
##oan
reliable
watches
incorporating
dull
twist
monica
##ometry
superhero
accounting
cruz
portsmouth
clinical
##abling
karen
avoiding
##chy
dayton
larvae
##structure
averaging
scotia
bibl
##bane
##eley
##roft
stip
commended
dominance
petersburg
borrowed
singh
legally
satisfact
forbes
remarks
plent
##ovan
##mented
depends
downed
caesar
duchess
hik
saves
##hey
##isch
##ogan
fuller
lyrically
favoured
hugo
##oux
##ikh
scandin
breath
butterfly
determination
##gun
lend
##ieu
##okes
salmon
presenting
worthy
partisan
##ław
stake
fins
retiring
accepting
espn
gardner
krish
sicily
ferrari
poul
tired
inev
toss
amber
monopol
hallow
galile
durham
##cliffe
cigar
rovers
wong
geographic
nationwide
attributes
webber
puzzles
gills
##itory
##child
sms
ambig
##isa
humph
testament
##ommun
immort
omaha
sovereignty
rats
##lance
priests
colleague
##iatus
wigg
##ril
##elda
colleg
activist
commissioners
responses
poisoning
monitoring
mcmah
sink
##estock
whenever
pharm
implementation
bloom
##ithm
strain
millimeter
happens
eccentric
thermal
zomb
##retion
suffr
dissent
remixes
##rina
##aru
dear
doz
specified
harder
peaceful
taun
astronomical
configuration
abstract
##uy
##armed
disk
pepper
governed
charting
magnet
auxiliary
##fold
##uba
indef
slopes
valued
scripts
philippine
kend
rok
##irmed
impair
striker
lunch
gore
exagger
leaked
furious
aspir
siblings
mumbai
cly
merg
##stock
spor
##keys
accent
guys
shelters
installment
enthusias
explicitly
bahamas
overtime
visitor
talked
neighborhoods
felix
##asi
sau
magist
trev
spirits
immune
reunited
canberra
yank
##usa
intentions
consort
angela
committees
responsibilities
1854
tournaments
drops
accommodation
prussia
contemporaries
activists
thunderstorms
gag
compart
devils
facade
1840
frog
lecture
lance
##sover
outlets
##pring
performs
persisted
expelled
freestyle
radioactive
1857
##unciation
rutherford
##gence
##igious
primetime
pearson
quantum
##dp
##acco
helium
orbits
resource
accumulated
nme
tailed
shocked
claud
syrian
shortened
conven
flora
##ady
##imm
##throp
##ellers
regener
discrimination
mirr
rebuilding
cir
saff
certifications
##marks
ensured
financially
tornadoes
diana
##enary
overha
aires
smugg
launching
ambul
guidance
##opl
oppen
##boro
analyz
investigating
convoys
verdict
tragedy
lung
##tes
##isy
intrig
revenues
miners
sounded
oversee
unwilling
criteria
lent
##oufl
superv
symbolic
dining
foul
lich
pony
##aid
##sl
newark
holden
nitrogen
disagreed
registration
falk
##rock
somebody
valve
expressing
livestock
enthusiasm
tampa
newer
portal
clement
tense
roofs
joshua
fratern
boards
screened
rejoined
wages
interim
develops
linking
northeastward
subtle
##iculum
bicy
lau
lucky
inability
##ilis
##empl
disturbed
patric
lowered
prominence
supernatural
kab
maker
##do
##icles
##rep
laser
jesse
therm
continuously
enlarged
bury
porn
ti
compton
enz
invention
organize
portrays
dedication
confrontation
wrestlemania
biblical
aunt
##cor
regain
143
grandmother
320
narrowly
persuade
relegated
##mir
poetic
televised
freely
casc
illumin
judged
analyst
psyched
iconic
##ovakia
gur
costa
dodgers
prolong
cedar
sanctuary
antarctic
##onscious
dexter
peripher
capcom
knowles
rainbow
rhine
collectively
frigates
##inos
heating
entries
eighteenth
stafford
pursuing
segreg
lectures
narrator
beside
whis
smallest
hotels
odds
imagine
sympathetic
excluded
ecclesiast
##itational
viewer
encycl
fc
mits
##swick
##ported
companions
bubble
interface
boun
cunning
##omfort
##idity
##ifax
abrupt
cruel
musc
shipments
makeup
550
renowned
bail
frames
wheels
allan
##inski
ashley
hannah
battlecruiser
bangladesh
til
##atin
##aird
shortage
cooking
adriatic
cc
gaza
mating
rows
stun
##arte
conclus
camoufl
declining
bard
jaws
lans
tides
##ilian
indie
dover
kingston
divisional
templ
predator
ceremonial
recommendation
consolidated
aesthetic
fet
kol
##woman
imped
halls
1858
homet
clad
crater
##ailand
casem
##zyme
hex
brock
minne
suppress
johns
fielding
rolls
mortality
encouraging
quantity
wand
##enas
reid
counted
donna
330
alexandria
lots
miz
pub
wade
##elage
thailand
##amous
beet
##avel
mothers
weaken
bedroom
contacts
wheeler
displacement
bahrain
xiii
mund
pamp
wives
ende
mcmahon
flame
comedian
centimetres
dame
##front
##heart
##orus
##ovina
promises
visc
reasonable
supposedly
merchandise
##asp
##ulu
betty
remaster
poets
discl
portable
propeller
qualification
thirteenth
ninet
nesting
postponed
pavilion
sv
zool
##ression
##uto
afraid
interrog
peers
clever
viral
nucleus
oversaw
1812
neighbours
deteriorated
inferior
µm
##eca
buying
reactor
bacon
lighthouse
welcomed
hometown
subjected
punch
affiliated
##iga
indianapolis
danube
julia
lomb
accordingly
manufacturer
tibet
jagu
##walk
##fo
legendary
tobacco
gm
avon
replay
troubles
cia
recapt
calib
1849
neptune
beings
incomp
foods
1856
wrestler
hutton
torture
jak
##bles
preference
presby
cancellation
meantime
favourable
exhausted
##stead
##iman
sci
##brates
winchester
halt
##shi
hamper
telec
provisional
recommendations
##anu
##asse
##ompr
capability
halifax
ordering
evacuate
forbidden
##rition
##mm
showc
refusal
mortar
strictly
##itative
timing
flies
utter
rumours
prussian
partisans
##olithic
gould
niger
##aston
##airo
1890s
catches
riots
##worthy
patriarch
concurrent
discharge
lauded
dana
##zel
bride
superstructure
breathing
hebrew
kamp
##icz
confisc
celebrations
pilgrim
##atible
##lett
skirm
associations
magnus
middlesex
##word
fright
manoe
##engers
advertisement
##owing
exempl
averages
kingdoms
trafford
manufacture
dramatically
##zi
##irt
##idium
sued
seab
expenses
communists
admits
dissatis
bradford
dozens
passages
restart
observe
investors
concentrate
joker
goss
jeal
##bone
##inh
##agara
categor
##idad
conventions
awak
moderately
lafayette
hr
sanche
beaches
loch
inspector
portraying
kinds
moth
manned
agr
norwich
offspring
sanchez
dus
rama
##uity
relat
paran
greene
archipel
planted
caves
vaugh
##12
marcel
##graded
tends
automatically
portraits
jessica
erie
vince
##atz
client
##achi
flaw
brood
reporters
triggered
ain
tina
##opus
peru
matrix
medi
##gestion
affection
##imentary
loses
plantation
sends
purely
troy
thread
##urance
rex
endeav
touc
alarm
orphan
interven
limbs
rochester
stewie
##sburg
##rob
byrd
empress
premise
leopold
amphibious
gn
airpl
halfway
observing
rectangular
##reet
alder
une
trim
brom
weber
##ikk
gamer
filmmakers
thurs
##arta
overnight
wears
feedback
rotten
boots
generic
slope
damasc
donations
##lining
reflection
fearing
shields
hp
##ecess
reper
plas
marin
shooter
hank
##him
reapp
induced
##yss
##redited
skilled
statistical
ballads
cinematic
datab
encyclop
sack
bees
moh
parallels
##build
gloucester
presumably
java
##oqu
##pect
##omi
##idian
knife
instances
classics
natal
comeback
boxes
batsmen
unnecess
brunswick
adequate
monsoon
canadiens
spectacular
shirts
innovation
accusations
##rators
chant
episcop
wyatt
##atas
##ovny
complexity
eager
instructor
chak
sharon
650
motorcy
shakira
duchovny
intimate
everyday
##etti
1852
sacr
integration
thorpe
oppenheimer
cay
clusters
realism
##zeg
oxide
enclosed
caut
sided
##eus
mana
defining
richards
sexy
cornell
boliv
downloadable
sophisticated
gael
tens
yo
##enstein
disqual
##izable
labeled
recipient
ingred
hierarch
lumin
nerve
shen
servant
marching
speaks
fitness
thursday
##zon
##arre
##avo
objected
invested
heming
collegiate
basal
##flies
colonists
quarry
faithful
crafts
rhe
##repr
fork
##ifier
cohen
1847
surveys
iraqi
fungi
tackle
yankovic
jealous
fals
rope
wax
communicate
violation
semin
amounted
hindi
remnant
metroid
hiatus
charm
farmland
coinage
tann
##ilus
##oly
metap
cret
particle
ruined
fundra
boycott
exceptional
rosen
ancestor
##comb
##ardy
##oved
strand
regards
highland
refusing
manufacturers
##haus
##oque
##wind
bohem
fourteenth
milton
deadline
1855
louisville
reilly
seated
##send
grun
counts
invas
wilde
yourself
excluding
sits
instant
breach
psychology
divorced
wizard
cafe
rb
venez
##alus
##aline
starter
combining
peaks
revelation
penalties
lebanon
gul
pomp
##fia
announcing
melodies
darren
miguel
inscriptions
convincing
##rimin
unified
coached
assured
autonom
testified
1846
1830
culminated
jab
##ordination
crist
possessions
jacket
museums
cooler
sketches
hij
neill
arb
ley
presumed
payments
hydra
electronics
uncertainty
orientation
damascus
gonna
##fires
##amy
saudi
smash
terrace
rhodesian
rendition
hastings
advertisements
##igon
heated
prost
emir
airways
infilt
embry
conceded
sansk
reddish
archipelago
rash
##rush
spiders
reck
##oka
serp
emi
statues
constellation
dancer
zelda
##dock
disrupted
##ribe
##vex
treason
declare
juliet
dissipating
hispanic
schemes
euras
zur
sej
rupert
georgian
submit
appreciation
explorer
diminished
posthumously
alonso
##thouse
##elles
avatar
calder
1832
crusade
plumage
inadequate
##kov
jamie
gwen
dioxide
aims
jal
##girl
shoes
twil
graz
additions
##ikes
devised
carte
terrorist
lexington
enzym
manoeuv
nolan
##kney
##gard
##elong
##apor
princes
inspection
acceptable
doggett
##umbering
leisure
dances
jed
curse
covenant
gum
hail
generating
natives
filling
##holders
azerb
azerbai
tidal
opener
geology
synopsis
legitim
kra
mered
subf
##atories
##kien
optical
astronaut
kilograms
twilight
bess
##jev
retal
courty
elector
apost
mechanisms
julie
traces
eva
thank
petro
dissolution
stockholm
relieve
sulfur
das
ich
vine
##ye
##fight
##fax
deity
##gee
sequels
mansfield
listeners
straw
define
viruses
##ommon
buckingham
constituency
fug
wess
##uka
chat
##elyn
##iker
humour
spiral
##ontinental
outfit
minneapolis
##eros
##imon
enabling
reclaim
blanc
##flu
##ahan
23rd
pulling
guarantee
meredith
cis
sacked
##anor
worcester
compass
noel
backdrop
characterised
##clair
dynamics
brisbane
##haven
slate
##aho
landown
profound
ruf
##chev
purchasing
recruiting
troubled
##lay
orland
##ensing
somewhere
curriculum
panthers
renovation
theod
sparked
##rys
flowing
expeditions
gazette
shepherd
halloween
genev
throws
automobile
shuttle
framework
uniforms
commemorate
devastated
sanskrit
cree
lanka
stiff
sealed
205
braw
adolf
methodist
patriot
kiel
oc
##atum
locals
superintend
prefect
ki
##bin
toys
##icism
leip
prejud
##ibi
colbert
exposition
broader
agreements
storey
prohibition
mt
##imo
beatty
seating
turtle
deadly
ridges
assassin
##ainted
adul
warwick
entity
broadly
1853
packed
prints
crystals
assuming
##arck
enzyme
indoor
northumb
deleted
cyn
barbar
crystall
boiler
patronage
watts
shackleton
pest
zo
##mass
arche
revision
keeper
electrons
moroc
static
skelet
exempt
drought
##ledon
promo
contempl
recovering
scratch
nominee
jos
##atches
seym
##ensen
##cestershire
slant
suggestions
travers
embed
concentrations
upt
##right
##ifa
frontal
teenager
furniture
yale
##hail
##orth
##auss
##orne
supervision
27th
gasoline
wednes
lacrosse
##wy
##ogne
##awak
debated
hampton
calcium
orlando
rous
vil
##orum
conning
spans
sharply
mushrooms
kapoor
unpreced
rage
##dal
##hot
antagonist
kilometre
unprecedented
##osl
abn
miy
currents
memorials
bottle
lovers
incumb
muscles
southward
persians
eastbound
workshop
integral
stretched
##books
aberd
presbyter
##aa
westbound
##efe
sitcom
shoots
palestinian
seymour
einstein
##ados
shane
spore
clut
grat
flatt
loving
resemblance
differs
dash
theology
traced
barons
detection
1841
please
lemon
wesley
vinyl
jor
succ
knox
transact
exploring
missionary
composing
souls
lynn
viking
emerge
hoffman
##pop
onset
stur
notting
similarity
georget
mentor
##itus
##utors
peer
albion
gradual
climbed
spreading
krishna
##illon
subway
welles
steals
prophe
maternal
touched
##stri
trenches
incarn
whereby
routed
unconscious
valleys
rowing
dolphins
hale
tac
belarus
##hyl
hardly
prominently
guaranteed
##roscopic
supervisor
estr
##isen
brack
carroll
reply
myr
jackie
mcn
facial
creators
transports
verb
tsar
hokies
dund
##ithe
##ioned
##omo
sto
##igation
seals
spray
guilt
belgrade
vij
1844
abundance
brutal
hectares
bip
##oids
##irus
##igne
joey
guam
cheese
hosting
disappro
mobility
paths
sinatra
nobles
oakland
bergen
crossover
hymn
crescent
dixon
eternal
##arms
##ulent
winston
menu
billed
groves
reinst
dismant
kahn
aquatic
cecil
kyl
wester
##vy
##mid
##hist
##amus
##tenham
matching
scenic
punct
grip
vacant
neutron
benedict
hemingway
bells
binary
lass
atp
sperm
verde
heroic
rosa
sophom
excavations
dawson
summoned
phantom
liu
##ancement
barrow
loans
factories
hitch
celebrities
ornith
anglican
choreography
venezuel
##lord
##sis
##agne
compuls
deficit
22nd
villains
harding
exceptions
venom
swords
consultant
dragons
ely
hire
shy
bret
getty
discovering
complaint
krust
ethics
##rels
depictions
overturn
counterpart
sesame
buc
exchanged
designing
##anni
handful
practiced
broadcasts
laden
ladder
planetary
jointly
conversely
gambling
ecclesiastical
##bes
shapes
quot
antio
equality
accepts
awk
essays
censorship
sculptures
anchored
moll
##lean
alley
##chair
decoration
periodic
##marine
cuis
##ught
unemployment
pamph
metaphor
regent
slide
continuation
eleanor
valentine
occupying
ambition
1836
ellip
utilized
advisor
mgm
reopened
nineteen
##icating
##idi
##odied
regul
##oupe
justified
eighty
xen
pradesh
enroll
consec
elong
confession
haiti
puzzle
falcon
barton
utility
sympath
wisden
peasants
wednesday
fisc
wimb
plots
clo
stranded
sounding
karn
claude
##ente
ener
resume
daylight
respir
insert
deny
dialect
awkward
cites
pag
##11
herzeg
underm
endemic
governance
stealing
olds
blocking
mountainous
byzantines
residences
dong
tud
##urai
unions
persistent
posting
priory
melting
backgrounds
authored
catalogue
moisture
unfortunately
unstable
vag
##iden
attain
storyt
urging
punt
venge
1776
##iem
ism
longtime
module
theatres
burnt
intensification
arabia
##manship
astronomy
cottage
counterparts
vishn
##kill
hebr
debates
negro
slender
nutri
contingent
##uro
emissions
obtaining
blackburn
federer
impacted
domes
krak
abdul
cantata
certificate
feast
specially
antilles
groove
1837
delivering
overlap
maurit
##elius
unbeat
envelop
italians
arabs
mongol
crocod
energet
##omans
stoke
##lend
##irth
labels
ek
##lot
seaw
wilderness
occurrence
granite
gunnery
wimbledon
zagre
congr
peac
providence
expend
solitary
telugu
webster
covent
auburn
##bot
stellar
##othe
bea
neur
hyph
resembling
##ogenic
lonely
aboriginal
sf
##ouk
aligned
prone
downs
balloon
likes
galv
cadets
concurrently
muller
##farlane
intimid
plaque
fruits
##ourse
slayer
prestigious
##inks
##opy
wrapped
duff
rituals
hardcore
zagreb
sizes
chocol
compose
decree
visibility
informs
accounted
bankruptcy
e3
##say
##fork
##sten
##ucn
monetary
##tym
gases
ecological
amazon
kits
flint
##bye
issuing
hamm
determining
eclip
##caster
congo
##andez
shorts
submission
unfav
goaltender
hailed
mell
orkney
##terson
cyber
morality
campaigned
uncommon
virtue
gaelic
iucn
zimb
##ulative
accession
texture
terminated
##ochond
devastating
guatemala
emblem
rall
crush
starboard
francois
extras
recalls
melodic
incredible
eruptions
outlaw
superintendent
bung
lever
eps
seth
versa
dressing
##ongh
##amoto
clown
##ahu
debts
royalist
shoulders
##loo
talented
logic
confronts
dorothy
carniv
##iculous
tolkien
##assium
syll
protesters
##boats
realizing
seeks
cycling
cannons
dismissal
gamma
reproductive
seventy
crosby
subordinate
artifacts
prolonged
gel
gong
jain
pater
tying
##kind
##odont
subpl
persecution
demons
##apeake
ideology
khrush
1839
update
prosperity
stakes
##ogs
syrac
305
organizing
identifying
banking
congressman
andrea
mclaren
heinrich
##nant
##mare
consoles
locks
burden
objections
olaf
hawks
hyde
enzymes
ls
##vara
##arc
##step
conrad
decent
owns
propon
candy
abbas
cadet
bombarded
voyager
tremend
diane
trinidad
erupted
wemb
marina
carb
##ibles
indo
captains
profitable
firmly
rabbit
luxury
fuselage
loosely
unnecessary
kart
kau
kins
##zed
##inas
append
secrets
eminem
underc
##atha
liberals
promptly
correctly
membrane
shawn
intensive
repeal
programmes
apocal
sinclair
integrity
guerrero
wanderers
khrushchev
boul
dl
etym
nave
##via
incon
abortion
pressures
happening
wyoming
puppet
hag
jill
surn
##rano
##parts
exotic
leased
brent
careful
abbot
surgeon
marathon
ankle
ditch
##dot
##ppe
inflation
potassium
gravitational
emotionally
fertil
kannada
kron
##ghai
humorous
satire
transmitted
dirt
tant
vass
compelling
cultivated
confederation
conscience
insurg
camouflage
hyphae
syracuse
rim
##elly
envision
blaz
solic
moff
survives
sunset
haul
nursing
incumbent
ci
mw
##esa
beef
kne
matilda
funnel
settling
curtain
balanced
dispersed
stupid
herzegovina
wembley
bates
burr
##olar
prair
amalg
crim
obstr
expired
temp
##attering
certification
synag
460
chesapeake
shifts
hampered
lumber
rox
corrupt
referenced
tuber
cease
kemp
besieged
pits
tapes
tragic
screw
downstream
dominion
waited
cartoons
picking
mammal
mates
pile
tuls
vid
##esy
incap
outpost
substr
armist
majesty
advers
breakaway
1835
libraries
innocence
weighing
duchy
brittany
krusty
##agher
arches
crushed
outflow
charitable
differently
woody
venet
risks
pinned
retreating
wolves
precursor
psychedelic
lak
shadows
shannon
##abwe
marion
latitude
composite
saskat
dictionary
##lore
##tor
##enza
desk
protector
spanning
attractions
strategies
expeditionary
recruits
pitchfork
accurately
obviously
##asis
sheer
noir
christina
50th
hostilities
ceram
undertaker
dimension
isotope
obstacles
codes
wrec
##irk
##ulous
angered
hunger
marty
tomatoes
ruin
constituted
reacted
randolph
deposited
lauren
hipper
echoed
vernon
paradise
leipzig
##bands
stricken
madras
bede
paired
ottomans
vacation
concurrency
coincided
miniature
relegation
hutchinson
fiscal
cripp
##vant
distress
booker
maggie
entirety
budd
impacts
1799
bleeding
eugen
quadrup
cus
np
slaughter
differed
circulated
suspects
galveston
puck
yosh
yoga
clips
noon
gunfire
replica
moons
ninja
horm
jma
tz
##fts
##phis
insane
practition
jewel
##onomic
pipeline
zimbabwe
gol
##atos
##icle
americas
##racted
walled
mandatory
folklore
shanghai
nwa
vector
shap
anto
hungar
informal
complications
1838
splits
belongs
rendering
##enhagen
evaluation
lec
##quit
postseason
infect
sentences
inserted
robust
discusses
tasmania
metallic
counterattack
unbeaten
lum
##uana
##fied
##atics
stained
##opot
brave
abyss
##gren
baroque
technically
novelist
specifications
downloads
astronomers
coffin
database
courtyard
##inished
##ouch
healing
exeter
labelled
mutiny
clarkson
teachings
weston
protested
patches
goodman
scream
##uxe
excellence
##occup
yuc
##alan
stack
ree
beaver
##uli
breck
bayern
missionaries
1829
cobb
horizon
gentleman
suspicion
hairs
rbi
sew
marian
##oken
technological
experiencing
gan
brett
satan
docks
alike
websites
webb
##hrer
answers
ces
iphone
##eur
anzac
hew
1860s
microph
attracting
inscribed
exceeding
vertebra
warehouse
##chwader
ferm
kry
rican
unav
carson
prehist
sao
surve
courthouse
augustine
totals
cockpit
redevelopment
digitally
trevor
bras
upstream
attitudes
davidson
marketed
##ographies
minds
reigning
enforce
continuity
thoroughly
answered
##powder
jol
loun
mould
##cill
inception
stalk
dispar
noct
basically
strips
fauna
administrator
ranger
airports
julius
intentionally
retrospective
rehabilitation
convex
ish
##abl
fey
founders
continually
expecting
sixteenth
gunpowder
rivera
councils
ukraine
##stonecraft
bowlers
parasites
vladimir
wollstonecraft
##elect
rejection
crick
moreno
broadside
1870s
surfaced
granting
failures
definitive
nazis
prestige
hpa
unrelated
leak
##ateral
raiding
235
salford
investments
410
barrage
vigil
mantle
fingers
vishnu
##uard
tok
deities
disastr
revis
presidents
helmet
deluxe
lgbt
plasma
##adian
##igrated
reint
##usions
adoles
amids
visually
1831
480
##agnetic
outrage
io
stressed
taxi
ensued
1842
unfinished
mistakes
excavated
czechosl
episcopal
sacrament
befri
##ocy
dishes
councill
marginal
metabol
pianist
disposal
habs
mum
##arius
strongh
mcd
reformation
andrews
reconstructed
##arin
thief
##idan
grades
limiting
examine
mistress
advisories
wireless
metallica
nottingham
amidships
##erie
##uta
beech
diverg
instantly
copenhagen
cultiv
##look
bombay
giro
sabb
disappointing
constructing
bicycle
ja
nos
soup
##ðr
notorious
immin
carc
##eason
northumberland
cheek
inflamm
##etto
heaviest
emergence
masterpiece
1801
baptism
sympathy
cretaceous
##kie
blades
probable
temperate
380
##mph
privy
ensuring
1843
bono
##zo
##fle
grind
outn
##ibald
preseason
inflict
citadel
choral
tallest
archaeology
surveill
##nance
thi
neal
indication
oppose
##load
##fields
wilf
escorting
seventeenth
cliffs
overlooking
unexpectedly
bie
cull
hv
##person
##eroy
##iliation
##eces
##imi
prinz
##oya
derives
professionals
bulld
sacrific
customer
erod
##19
##irez
rematch
buchan
##arez
cultivation
1815
boring
edit
idaho
criticizing
agenda
weaker
renumbering
##dington
juveniles
spokesman
##uj
##astically
blunt
cents
willow
departing
modeled
questioning
##face
##finger
##onn
203
firms
exploded
gentlemen
trunkline
sodium
##kan
##pm
enlight
coined
futur
ambush
intersecting
corpse
autonomous
surveillance
outsk
eponymous
catching
puff
mitochond
omitted
remixed
consulting
nomen
pirate
isabella
minerals
sophomore
ducks
gad
rented
tempt
wage
##acious
invinc
##aukee
winnip
harb
handic
dupl
identifies
ramirez
curs
phel
##bons
##agements
seap
##orman
financed
paragu
sloven
discarded
markings
##ometer
refurb
individually
straits
rerout
taft
reprise
rolled
interpretations
inexper
presbyterian
georgetown
aif
neb
defenc
##uesday
middleton
nikol
repetitive
infinite
suffrage
bols
cairo
governmental
superb
explosives
pigeon
deliberate
outskirts
oy
##amorph
##utz
relate
goodbye
##borg
mickey
beneficial
enjoyable
dartmouth
cunningham
dos
jumped
nir
piv
rogue
tips
##idays
##urnal
fleeing
coordinated
retrieve
overthrow
baja
tuesday
suck
killings
duel
erin
cooling
towed
levine
##etr
trunc
engagements
defl
locke
##bred
sexes
uncovered
columnist
nicole
superiority
glaciers
winnipeg
##tles
##stop
aggression
himm
ruff
happiness
defendant
shifting
fitzger
fou
iz
##avier
overc
obsol
1809
1794
demonstrations
randall
upgrades
leafs
dreadnoughts
cylindrical
bite
pact
##ei
dams
freeman
ordnance
excit
likened
interception
algor
psychiatric
##icol
##elman
exiled
##oki
applying
autonomy
225
frustration
hedge
##ucc
##isha
usaf
numbering
collided
personalities
850
destructive
enlist
matthews
nk
null
##nia
##15
stanton
##akov
##ounts
##anged
emin
germanic
tombs
depressed
doubts
couples
clinic
chromos
fitzgerald
stain
resisted
backl
barker
barometric
repuls
catast
malaria
scrut
lambert
alexandra
oxidation
imminent
##iffer
formid
teamed
collar
christine
electrom
auditor
memphis
fifteenth
sunsh
rapids
1798
targeting
resembled
trends
lenin
kidnapped
dumb
hare
pd
tah
##zing
##orrow
##strom
##alez
irrig
gibbs
##antha
##atine
greeted
chev
tunes
mariah
auditioned
kany
##ials
barack
supervised
uncomfort
santi
facilitate
magnificent
habsburg
pemb
canning
fluct
lifes
affiliate
flexible
hassett
ineffective
lakers
mash
stole
stems
doom
harald
justices
cornwallis
contradict
bismarck
remastered
embedded
ios
kant
leh
crem
europeans
equity
vacu
allegiance
disorders
obscure
disastrous
cake
morm
##nc
ono
##apy
shake
incent
amster
partition
##inda
colt
invis
bike
acquiring
lotus
umbre
chocolate
sis
sard
athe
##ondheim
##itsu
##appers
possibilities
lethal
humanitarian
dominate
##bourg
montene
touching
alterations
yielded
spartan
prevalent
vett
wad
##wyn
madness
snakes
macl
essence
bolt
clarence
correspondent
gonzalez
vermont
nude
##rill
##esi
##anar
stalled
clover
warb
elvis
instinct
dispers
batista
displaying
expresses
stripes
canton
salvador
enhance
mimic
bryant
2d
heather
##herly
##oused
undergoing
guides
demise
nightmare
religions
violated
romeo
##hardt
##cos
thy
strained
albania
transf
30th
holdings
greenland
tariff
financing
problematic
cinematography
plenty
dried
sally
##waukee
##stage
staging
manit
popmat
lightly
affects
thomson
synch
penny
1819
1814
hepburn
walsh
cuisine
crimson
popmatters
ner
wig
##rotic
rework
chasing
clients
disorgan
##ismatic
contributor
facebook
appealing
bunker
anticipation
penguins
clyde
bolshe
obsolete
jub
lana
##cu
##heed
tosh
##andra
neville
##quel
outline
interchanges
meal
grouped
evergl
viewership
europa
tribun
intensify
defendants
asserts
bax
lub
lips
vend
##eche
##este
truce
backwards
mats
modification
martyr
millimeters
chords
energetic
nons
tatt
##advant
##illas
underway
subgen
backs
provoked
rao
footballer
1793
consulted
shirley
##hawk
##pes
##orrh
##isely
timeline
disadvant
centred
barric
oldham
illusion
sanction
heroine
1820
spinning
blew
habits
envisioned
amsterdam
everglades
ding
##thy
showcase
glorious
superc
goldman
denounced
racism
criticisms
municipalities
discharged
corpus
aberdeen
yucatan
coke
tails
##ook
prelude
animators
culminating
inheritance
euc
foli
yah
##cip
ald
belly
volley
viable
fathers
punish
huff
cartman
confirmation
devotion
homosexuality
nhc
taunton
tus
zach
##oran
##thood
bruss
braun
scutt
feas
smok
midst
holder
martine
tavern
decorations
reperto
##oub
notre
claus
reloc
warming
##insky
costly
tunis
bould
##uld
suits
braves
mare
eliminating
galaxies
bree
okin
xv
##inch
##abul
clap
contamin
communism
grounded
##ijuana
rotating
kickoff
megal
dwell
ours
panc
polo
campaigning
surroundings
licence
rumble
rehearsals
perez
mb
rita
vhs
##idas
shores
plank
amus
crab
coordination
mets
constraints
refuse
vein
walton
rodgers
implied
sponsor
guidelines
bosnian
nigel
peggy
overhaul
##ych
lep
ads
wein
filip
protagonists
##market
gillian
naples
anxiety
ambulance
ioc
pension
##eters
##abi
scan
herc
maz
slim
homicide
suscept
chicks
buffy
ernst
bruno
ironclad
rost
brest
##oku
prevention
stationary
insign
tomorrow
treaties
criminals
velvet
gustav
monopoly
congrat
moffat
himmler
ebert
lact
nr
nails
##atile
dee
206
spelling
para
##space
detention
skating
215
irene
godwin
rebecca
judici
crusaders
wisdom
picks
##vana
##gio
##ilib
forem
chrys
##agua
gra
keynes
ultra
oceanic
illustration
lindsay
jenny
bureauc
comedic
rehearsal
marlborough
tributary
geneva
cw
mound
##care
##bral
##pole
##onder
upheld
evan
##uger
1500
argu
##mington
breakfast
celebrating
cooperative
1775
aiming
fulfill
humphrey
tudor
wur
μm
##rice
thesis
itv
##champ
##kef
loft
standings
29th
mascot
owl
dickinson
rewarded
jaguar
bland
alec
hunted
breeders
minded
gateway
proclamation
tremendous
formidable
nina
staun
singular
terra
##anya
commando
cyt
nightcl
void
##loe
sarawak
1792
mandate
olivier
titanic
voluntary
celestial
##irable
##agasy
##assment
stranger
este
##ennes
fortunes
commissioning
moses
spectral
gamec
sculptor
sighted
vibe
redesigned
welding
brussels
sham
torr
treatments
wilkinson
employing
assumption
johannes
etymology
ego
komb
lump
##rust
worry
equation
climbs
progresses
feeds
oriental
##anthrop
fernando
ganes
##rat
##xton
theological
congestion
spells
marse
##ansen
carm
milky
milwaukee
concession
borneo
appointments
wheelchair
volcanoes
hulk
farewell
armistice
cricketer
catastrop
cumberland
wagon
lateral
soils
sah
everett
resting
##quez
1850s
plantations
prolific
leopard
##zman
inacc
##isk
unim
parat
malagasy
samar
resistant
mathematic
disagreement
indefin
airplane
inaccur
kell
ya
##ør
##tering
unse
addiction
restoring
casey
commentator
widened
disappearance
reverend
rendez
peasant
sunshine
santiago
jut
wanna
foraging
unchanged
shortages
chef
##odynam
destinations
savoy
phenomena
bian
##erun
marco
enduring
diverted
persist
anyway
traders
intervene
scripted
trafficking
ronnie
salvation
morphology
botanical
shankar
wenger
##wal
##orable
##itian
##ogle
flam
emission
facto
chaplin
sandwich
340
freshwater
redesignated
aph
benson
lah
##berht
clade
timothy
colts
albanian
narc
payne
owed
malaysian
overlord
supplemented
repertoire
rhet
whig
incub
relates
weaver
minaj
georges
jeop
salon
motiv
iranian
escaping
strikeouts
hiros
chopra
paralympics
clifton
wolverines
chimney
##ompression
piz
##omal
##istani
fined
##appropri
farr
rhin
##baum
talents
1825
mitch
ipad
umpire
cf
kash
nod
##wi
##leigh
neon
brach
allison
outfield
charming
pepp
transpar
lasts
daven
graduates
fixture
avalanche
cromwell
lund
pinn
landmarks
townsend
freak
everywhere
hitter
encirc
1824
1789
pigs
scholarly
infrared
fowler
ions
nmi
zu
##ighters
warn
nasser
quartet
noun
vie
inund
##ilated
##lywood
reli
##atham
transcend
proving
mccoy
chemicals
biden
ahmad
clayton
sejm
umbrella
##80
##staff
byr
oryz
reduces
devi
employer
tyres
1804
ethn
1795
reservation
pakistani
commemorative
cambodia
bizarre
casemates
azerbaijan
hiring
##giving
alum
exits
garbage
negatively
consumers
lionel
prospects
exploit
muk
##50
##stones
##leased
carne
differing
piers
premium
alternating
adjo
dorset
deception
rendezv
toil
##omac
##utnant
##chus
##plant
hotsp
sands
dissol
delegate
turbine
obliged
uncomfortable
davenport
rift
##itivity
##emia
##icho
##anti
##obic
sanders
coloration
sellers
prosecutor
exaggerated
eul
eri
vain
relinqu
homeland
concerto
1821
bb
nj
utt
##yen
pratt
enric
marriages
commissions
discs
treating
1810
measurement
frogs
pipes
monasteries
##hawks
judiciary
monitors
trainer
perfection
##hetamine
rabbi
satisfying
ingredients
pistol
whip
wholly
helena
undertake
colombia
kombat
uc
zack
##atl
##arians
##enb
alma
##emn
##emann
##bern
##ifiers
contender
##plus
1833
1797
enforced
saffir
mog
yuk
##wen
##ellus
overhead
cald
26th
290
premises
commercials
naturalist
procession
ethanol
fence
het
hib
tate
##eme
adorn
brooke
tenor
letting
conclude
vener
compensate
folded
hungarians
cory
kad
kaw
wavel
##hele
##ivo
##ocar
##iae
herd
monkeys
convict
explores
##afi
malvern
wilmington
photographed
groening
1806
dockyard
unreleased
accomplishments
academics
eurasian
##13
##yards
##ynt
investigators
1805
vegetables
pluto
griffith
searched
surprisingly
pie
##mere
##ango
retains
glaston
discoveries
roses
excavation
elephants
kilogram
unanimously
synagogue
pud
rans
##hm
##ataka
##arity
conan
butcher
##integr
regency
gerard
characterization
angular
##pleas
precision
steamer
tributaries
##stadt
midfielder
fraternity
tae
##chel
##du
##jon
##aden
stub
framed
amir
##ailable
mao
##nee
nominal
tung
ignor
improvised
alphabet
overlooked
vickers
inverte
bikini
ae
cors
##ser
##elope
forens
##leaf
##oping
prague
##quest
##aji
headquartered
ruby
vicar
glacial
mozamb
elongated
mauritius
##game
275
applaud
carnival
alger
##iston
ammon
mya
pressing
boarded
fishermen
hazel
nadu
neighbors
fay
##base
##ος
##erl
##itism
passive
patterson
prizes
charleston
volunteered
stevenson
hogan
alamos
unanimous
arguably
thur
##ocative
spine
smile
##obil
convened
variously
##oxide
erlew
precisely
dolls
hanover
trauma
tolerance
erlewine
kok
##yah
##isse
toul
arj
adviser
archie
undefe
##harmon
poker
overwhelmed
glastonbury
litt
lys
##alli
finances
brend
raided
equilib
productive
catholicism
decreasing
enterprises
flashback
outright
wavelength
undefeated
##foot
##alach
##adh
##urated
resent
decks
junta
infections
refined
propelled
competitor
28th
potomac
brady
sophia
rhythmic
exports
blonde
hydraul
hbo
##vol
##hea
##iler
aden
newcom
boone
bucc
smell
posters
bollywood
paleont
autobiographical
reluctantly
honduras
dix
nell
waugh
##eles
chau
twisted
bluff
##spe
suffolk
ode
bonnie
decorative
collectors
innovations
pyth
##eting
blitz
styled
higgins
separating
screenwriter
soundtracks
axe
piper
breckin
fritz
arter
branded
quater
invade
admit
premature
reasoning
3000
substances
licensing
coward
float
vulcan
ramps
tackles
paralympic
storytelling
prairie
kanye
katherine
##waters
##acs
scler
flair
charging
bays
macfarlane
scheer
hearings
bly
##aton
stint
unsc
##asted
##ovar
ida
glider
##sche
##ylon
hyder
berger
mascul
complexes
pennant
talbot
ninety
##gregor
phrases
pronunciation
nassau
derivative
##building
hm
##aby
sheets
##ports
guin
##elee
adverse
##unda
infring
villagers
narr
journalism
packaging
cleaning
coordinator
kylie
mps
##ardi
intermitt
reprinted
combines
giov
splitting
niagara
610
rigid
tiles
arte
arise
somehow
##forward
clearance
alternatively
confederacy
treasurer
syndicate
triangular
##elihood
vacuum
glands
jumps
kob
paus
##iances
coy
halft
dealer
teenagers
precedent
catchy
exploitation
jarrett
airfields
chloride
wessex
vale
##gage
ink
stipe
alv
heal
##grass
assisting
jerome
fisheries
filmmaker
phelps
excitement
vettel
sinc
tut
chu
##iban
epstein
calais
bombed
310
oswald
oversh
lifelong
corporations
pulp
surreal
astronomer
voltage
mourning
hos
jas
rs
ramb
##ilon
forc
align
shor
hered
compatible
decompression
cane
flanks
##ropods
soci
tuned
cognitive
wigan
##alis
tops
archive
limb
ideals
linna
1834
stretching
convinces
suspicious
##nar
##arios
crude
disintegr
endured
corv
crowley
vertebrae
##bie
stag
disg
finishes
##amped
eddy
##identified
systematic
##vester
snap
##iii
bedford
advantages
sterling
manitoba
martinez
ez
erik
tally
##notes
probe
verbal
responding
unlock
capitals
inventory
staircase
vaughan
motorcycle
eclipse
kara
qf
##bling
##icious
##elg
##idy
##ulator
plural
manila
deposed
lineage
garner
hostage
risen
necessity
translations
pottery
tissues
seizure
reintrod
okinawa
quatermass
lur
##beth
##aparte
justify
##otta
garrett
prediction
intervals
ukrain
absurd
1790
owls
sectors
analyses
vor
zap
##nals
##yth
##illion
anybody
##ysc
keel
apology
ambitions
conspic
advocates
invisible
lust
##owitz
amen
canals
detained
catcher
##ophon
ambrose
miranda
converting
adjusted
barrels
##andro
seism
herman
##oks
overrun
harp
ethical
piercing
synthetic
rockef
zepp
##tures
chased
plague
elk
everton
geometry
rested
authorised
irrit
economically
crowded
physicians
interfere
emancip
motifs
motto
soprano
surname
outnumbered
seld
##awi
connector
garland
mccay
1828
depths
sponsorship
confiscated
kul
##ician
ascent
contempt
gris
overly
entrepr
canadians
##ija
exhibitions
compares
extrav
ancestral
kerry
ravens
reyes
pixar
nostalg
zhang
aground
bount
lens
vind
zah
##adin
##ochem
amin
airstri
winters
##ikovsky
lyon
obsessed
turbo
hereford
execute
descending
levy
tolls
theorem
cosmic
inevitable
makers
tire
ust
##wit
toby
shame
##ongs
megan
##atta
stephan
listened
tottenham
journals
##maid
flynn
probability
ambient
bunch
buddhism
halftime
##uf
android
bye
afl
wrought
germ
augmented
totaling
oceans
747
implies
ryu
satirical
karnataka
##abulary
bureaucr
mab
rko
##yo
inappropri
##amily
stays
trit
brush
playwright
consume
##shaw
bias
eyed
regimental
apartments
exercised
coden
pupil
passionate
neglected
kubrick
amusement
mons
##alm
##ocyt
notices
whedon
commod
##ugs
##erner
advancement
motivation
rowland
carlisle
exported
spontaneous
##electric
hue
kod
##rically
bean
##church
britten
aging
accessed
peterson
fortun
messenger
suprem
nichol
earnings
patriots
quietly
pedestrian
gin
witt
##lov
##with
##oso
shrews
amn
##onduct
##print
arrange
refres
1816
nike
requesting
hangar
liberties
wicked
kitty
##pox
byron
##opa
exac
myers
midship
listings
briar
deposit
succeeding
nordic
mozambique
dose
fission
rory
ws
##40
dres
infants
silva
adopting
expressions
grief
##ozo
dragged
renovated
pneumonia
morocco
breckinridge
tara
##ecuted
stig
timor
redempt
##horst
fleets
philharmon
rails
employs
bonaparte
1796
addressing
sparta
lantern
kumar
dungeons
pivot
cic
##mec
orion
plaster
spun
eliot
schwar
divert
barriers
painters
codex
lithium
terrorism
vatican
immortal
exacerb
pter
##nt
##60
##rics
mahar
demos
390
trailing
addresses
deputies
recruitment
privileges
wrecked
buchanan
##gil
##fried
##amo
##urities
##irs
arrows
muss
belfast
mounting
lowe
advertised
dungeon
consul
coleman
saigon
philanthrop
salem
rowed
jurassic
absorption
guerrilla
cinematographer
rockefeller
##hus
##icides
##indy
emerson
monastic
schne
suppressed
instability
lineback
engineered
candidacy
sediment
amendments
agreeing
##points
switching
fulfilled
dental
hs
kip
pom
##banks
##amas
inclined
disreg
cooke
quote
##rah
minh
severity
bela
extensions
##enched
instituted
odys
cables
subplot
rerouted
entreprene
ejected
gond
pens
##beck
##ostic
abbre
marijuana
disgr
eden
histories
merge
odin
contestants
vengeance
##fi
exh
##ongo
abe
amended
flaws
warmer
regina
gloria
silly
stanza
lester
nicar
napoleonic
encyclopedia
##ingo
unin
2017
meals
registry
impending
protocol
approve
100th
silicon
295
nationals
kenya
salvage
patriotic
damp
pending
vint
##rous
##otus
fru
draught
dob
crete
gerry
hammers
pauline
olga
wildc
embark
dismay
surveyed
ludwig
brawl
paternal
akin
dic
##tland
##onne
plunder
deserted
discography
visions
infamous
insists
structured
ridiculous
precious
charlton
sudan
decreases
implications
rhythms
sidney
ghosts
exploited
physicist
unconv
epithet
inconsistent
##pie
##urus
##acker
margins
relying
parodies
supportive
gloss
combinations
40th
elevator
benefited
##adowed
##keeping
retaliation
istan
jum
kappa
siber
##mium
##inald
##iches
conson
estuary
attackers
holidays
dubai
alcoh
##fleet
ik
##inging
topping
unfor
outlook
proves
##erville
royals
wooded
urugu
conversations
yeah
mentally
cac
wield
##fan
##athed
##entin
##emi
afc
donkey
italia
minorities
acquaint
explosions
gesture
ahl
lal
och
##rup
asym
##imited
##oche
outc
assim
surplus
barred
downgraded
vars
avengers
marker
denis
taxation
hungry
embrace
compulsory
istanbul
dahl
##orse
##etes
spends
mangal
shipment
##tenstein
##liest
unsure
odi
ariel
scarlet
searches
plagued
abnormal
tad
##aris
##leod
##earing
contention
##uble
outages
bloc
##hesis
captained
organism
selective
judy
examining
1818
preferring
janeiro
proportions
nursery
concealed
landslides
tutor
##rud
ingen
scroll
alloy
peel
persia
mastering
observes
solidarity
antibodies
mcclellan
macedonia
bieber
cet
lj
rn
sage
inert
##street
stairs
cone
intric
predation
caud
gallip
440
symbolism
sabot
peloton
neighbourhood
neutrality
extraction
athenian
patricia
sina
yak
##asian
whist
chili
reliance
gob
decim
##ease
singled
cheaper
constitute
guarded
jericho
comprise
ecw
##runner
analyzed
##oding
##oco
perce
earp
underg
possesses
prophet
sunny
samantha
marrying
earthquakes
semifinals
vivid
thumb
anter
trondheim
##icked
mayer
daytime
prevailing
pitches
contrasting
diversion
prescribed
galileo
nomencl
electromagnetic
gamecube
equilibrium
##atops
##empo
splend
tricks
crying
dred
wills
massa
holders
railroads
picard
stefan
rbis
lounge
gallipoli
dion
##lund
alumin
seaf
worm
upwards
drinks
assumes
flem
golds
informer
##govern
dwelling
honoured
reorganized
witchcraft
gandhi
fundraising
jutland
fury
atari
brands
travis
nominate
threaten
khmer
exceptionally
koh
neuro
shepard
sustainable
uplo
bis
bisc
hoy
jard
kou
tart
vuk
##18
##otrop
##akon
commuter
##intosh
##eyer
acet
invalid
freighter
camel
libya
simultaneous
clifford
hierarchy
hilar
rca
wik
zen
##rand
##uber
stump
projection
disability
suppression
##flin
##clc
equator
cruising
##zzi
actresses
assaulted
phillip
##houser
jedi
unavailable
dul
niss
##zyn
##inet
inad
chast
usc
##endicular
overhe
outward
##into
metaph
bests
squar
damon
influenza
primates
urs
urine
transitioned
nichols
coordinate
oscill
embraced
##grove
resonance
evolve
gull
rw
za
carriages
##formed
cypr
malley
birch
pulse
unfair
jacqu
commemorated
simplicity
perpendicular
drifted
pour
paced
pants
##bee
##inating
inact
enam
amor
allig
violet
galleries
collaborator
cellular
revolver
reservations
hartford
##uppe
gyp
yog
deaf
##ondo
petty
selen
beginnings
##chewan
##roads
kicking
spartans
spokesperson
klein
ambiguous
bery
wip
##mars
##gau
##acter
##illand
unm
unic
compelled
phyll
cycles
galactic
causeway
conflu
boris
##breaking
nicolas
proceeding
judgement
bruins
arbitr
depleted
venezuela
nw
##phe
##ayana
chol
chun
##agram
hermann
##itti
revive
nowhere
##entional
##trak
intercontinental
insistence
varsity
##worm
##robe
spat
bram
##igny
expo
barney
stargate
waterloo
pleaded
riverside
feudal
penetrate
nay
##onal
##sted
enig
compare
flats
indul
schmid
confessions
cancel
commitments
backstage
aesthet
pilgrimage
gaps
nac
shu
underworld
##azar
discretion
gliders
midland
universally
flyers
transferring
racist
logical
witches
omn
mesa
synthesizer
toxicity
pledged
prejudice
saskatchewan
##itri
shi
arbor
endurance
##brand
openings
skysc
lowell
##kinen
dunn
assaults
hatred
atlantis
inauguration
vikings
tramway
dit
foll
mfr
bran
parap
subl
generous
patrolling
experimented
selections
copied
tyre
conceptual
admiration
contrasted
rouge
indirectly
weren
sabbath
giovanni
dd
##encia
sociology
postal
painful
practically
paulo
pastor
penned
contestant
bulls
havilland
tubercul
venetian
lw
sif
##ku
##zhn
##erton
##igibility
##otle
clashed
grac
combs
berth
falc
detailing
antiquity
zombie
northumbria
practitioners
byrne
skyscrap
fiance
##oughton
meadow
doyle
smallpox
enjoying
extrater
blowing
cortex
suzuki
spherical
zeppelin
redemption
bored
gert
ought
##tford
##mire
##frey
manz
presided
generators
meditation
harriet
successors
turtles
malt
mccorm
fashioned
wagons
trumpet
haunted
checked
buddha
linnaeus
dair
fiji
kov
pity
zion
##oder
disruption
##iza
buoy
helms
robbery
transporting
saddle
stevenage
alcoholic
gat
##acies
elm
emil
regulated
builds
sentiments
moe
sunlight
1827
640
etty
1777
earnest
pseudonym
substrate
##leen
chalk
marg
wehr
interred
ramon
consuming
rabb
substituted
thanksgiving
symmetry
sacramento
kess
pied
tard
tilt
wulf
reiter
##cephal
##ifiable
plun
relocation
##aceans
schiz
britann
stealth
collier
avery
favorably
1826
rowling
proposes
yoko
reconciliation
cochrane
shrewsbury
auck
faint
##hound
##itations
triv
clare
attaining
prequel
charters
eli
scharn
shower
patrons
williamson
constable
ashton
forestry
immigrant
reissue
conclusions
flattened
microphone
repulsed
ips
ud
yas
##ogene
emm
airbus
##annah
barg
islanders
fortification
biographical
illustrate
emphasize
nutrition
incredibly
adjoining
aide
##wold
##elo
##ourg
##iaz
actin
wrist
sworn
coasts
promotions
brownlee
##lessness
mechanic
mercia
symphonic
satisfy
##chaikovsky
kendrick
hitchcock
dag
dump
rides
vapor
##adle
abdom
offence
outlined
parth
poole
equest
tenants
announce
holt
macbeth
490
exclusion
haynes
##ogenesis
otter
mysore
lavish
chrono
carnegie
schneider
hid
lily
oste
##pur
yearly
decomp
peat
nationalism
refin
mcgu
hooper
1817
unlimited
obligations
reminded
abruptly
aluminium
aq
ratt
intro
weiss
annals
lynd
cups
berk
azores
ventures
sponsors
nets
tiber
vom
vogue
##zh
##zko
##isan
seward
energ
intending
grate
disemb
originating
eastenders
##ussy
treatise
socialism
atlas
analy
seller
hanged
trait
laurent
surpassing
cavity
scharnhorst
cnn
iq
melee
##oit
incoming
manners
overview
remod
thanhouser
mono
capped
socially
firearms
420
tactic
archaeologists
##rogamer
sleeve
dresden
##olt
trams
clair
##ollen
meh
mafia
extingu
expose
depended
euph
lyd
halluc
breakup
packs
mammoth
hansen
simplified
fertile
linguistic
respiratory
erotic
ome
##nick
comr
spector
brenn
coher
milne
transylvania
nationalists
eurogamer
lesson
burt
immense
gallons
wilhelms
outfits
relaxed
sake
##hops
stunning
##utory
aren
quotes
##uala
antic
melanch
baden
citation
straightforward
highlighting
descendant
prehistoric
faw
goring
ile
mif
##maker
##agus
levin
canopy
invaders
premiers
robson
hearted
1803
ethiop
functioning
renewal
laurence
paradox
reassigned
skeptical
tribunal
philharmonic
3ds
viz
##buck
whistle
conway
google
filters
default
objection
glut
301
widening
buddy
astrol
hurley
resurrect
immunity
numerical
irrigation
mersey
pasha
wither
##adium
##leep
fry
sep
##arya
herr
edible
metamorph
suffers
wilco
scenarios
synonym
38th
1808
1811
660
sorties
huron
illegit
destroys
##enzo
impedance
synchron
extraterrest
##anity
##iferous
lars
downward
whitehead
crewmen
kratos
1823
franchises
crafted
conferences
cerv
oclc
##14
##mind
##hir
wasp
##igi
playboy
genoc
burrows
angelo
430
fraction
auckland
cn
##itud
##ematsu
fres
##ctica
imaging
expon
avant
solved
textile
gallant
##children
joc
kru
##function
unle
##abh
centennial
schl
obit
detach
researcher
##headed
winged
ussr
mongols
emerald
disguised
jenkins
asteroid
antioch
enrollment
shoreline
tones
##vine
##ben
##ineas
offset
##ultural
cohes
upan
prevents
realigned
infinity
influx
404
empower
##iseries
countered
emperors
1791
chaired
spinal
baghd
inaugurated
simpler
worsened
ges
gian
hick
henson
evid
austrians
delicate
squir
##loid
khalid
sheridan
revolves
migratory
optimistic
anarchist
hereditary
dante
gue
rack
##fest
##thard
##ums
unint
greens
prototypes
hunts
denial
macmill
employers
jacksonville
misunder
installations
cheshire
willingness
pillars
phylogenetic
scandinavian
artefact
nicholson
dove
iro
vh
forested
notified
worsh
norris
superst
funn
unsigned
sensitivity
dialects
tao
jacobs
landscapes
annexed
inappropriate
confluence
qing
vang
##macht
arid
##about
##ogly
##acey
secre
autism
occult
gunners
1783
supernova
overturned
abbrev
macmillan
bs
##uve
##eri
##oped
disband
##otherapy
transp
balzac
gallagher
processed
forthcoming
##stitution
amidst
nsb
segregation
##hausen
hyderabad
fidel
hint
maw
##nets
##2o
ars
plaint
ench
##quis
scary
severed
raikk
convective
takeover
camden
dunder
borne
##ugging
monarchs
initiatives
upright
celtics
slavic
supervising
raikkonen
mice
woo
zoe
##zie
##pers
heis
carlo
polished
distorted
##umbled
recognizes
michele
domination
boxer
recipients
gossip
byrds
bungie
eck
pes
##fil
##etics
##emouth
resum
slogan
transverse
delivers
guardians
spokane
traum
penguin
fellowship
ulys
##zt
##ifully
clashes
herod
intersp
canvas
discont
##enness
turf
purana
recognise
travelers
drafts
1813
demonstrating
absorb
susceptible
80s
krie
vall
suk
##illard
##isson
slated
starcraft
gunmen
screaming
hostility
principally
nuclei
lungs
elaborated
toyota
buttons
wehrmacht
lea
##pres
##ropod
##retto
readings
hardest
controversies
withdrawing
levi
stylistic
incarnation
nebula
nirvana
disorganized
ukrainian
ulysses
fused
gome
##gart
##ivided
slipped
motives
activism
threatens
calculations
##ropolis
pecul
barkley
cove
tink
##orian
##amination
hears
spurs
interd
maver
baseman
guess
##etsu
mcgr
violations
undivided
hawkins
altitudes
gatehouse
viceroy
elliot
kesha
quadruple
bounty
nicaragua
tuberculosis
bw
kak
koch
nath
##court
##vie
chloe
shoe
indict
millwall
##unders
254
radial
lowland
demonstrates
shelby
1780
flashbacks
prefers
dictator
holloway
aristocracy
reinstated
stronghold
seldom
inadvert
igu
maus
masts
rak
vulture
##leum
shade
bricks
medall
steamed
caled
solving
occupies
miracle
mdot
acknowledge
laurie
##hello
landowners
forensic
schwarz
peculiar
baj
kai
tchaikovsky
##ienced
##kary
##bys
inmates
##alysis
##ulin
deport
##enden
eligibility
invites
##ossa
cornish
fatig
scarce
undertaking
negotiating
feminine
suther
pamphlet
nightclub
mangalore
gdp
ike
uematsu
##inia
forerun
alto
spars
clues
crashes
wherein
booked
localized
222
affirmed
##forth
khal
dalton
dodge
millimetre
enclosure
annexation
dismantled
eroded
wilhelmshaven
ct
gop
kuala
lup
stocks
##lements
computing
genome
miniseries
donation
fronts
homest
workshops
merry
##werff
conflicting
comparatively
echoes
torchwood
dignity
melt
ou
ostr
##lia
touches
##ectors
##opath
##atton
milestone
applies
torpedoed
nicol
nemesis
underside
vintage
cyprus
gos
##yg
pry
##ellery
graff
amar
counting
brewer
confusing
cyan
chooses
digging
savings
lovely
casualty
catalyst
synthesizers
endorsement
vanderwerff
elegant
hercules
cin
lille
##tter
beak
##ulse
scapa
schw
diva
radiohead
distribute
yellowstone
trusted
dodd
sticky
authenticity
##opotam
paratro
1up
hated
nect
nile
tik
##the
amanda
marvin
deserved
##orns
##brough
chew
frankf
haj
cannibal
560
songwriters
dalmat
reproduce
lobb
advocacy
ricky
shafts
russo
penetrated
robbie
rewrite
dissatisfied
petroleum
foremost
abdomen
##tail
##itored
isis
unesco
pert
noah
##oyne
critique
prevailed
proto
waterfall
reprised
##rode
developmental
royalty
wallach
abandoning
stretches
wetlands
flanked
extracted
drowning
vitamin
reissued
czechoslovakia
auditorium
##zhnev
cgi
eust
##vs
forge
##assis
flick
accusing
invading
concessions
##afta
seminary
ratified
1802
fuj
liquor
gateshead
nadal
resurrection
gomez
sutherland
hens
lc
ngu
pasc
scept
##leutnant
friction
##apo
leap
parc
quir
countdown
corinth
garde
mountaine
enjoys
incorporation
dramat
densely
ahmed
antarctica
disguise
apprentice
coulthard
upanish
pab
##cely
toe
allah
##ancies
damn
handheld
213
##author
chancel
truncated
buccane
baghdad
hector
##oros
##isal
splin
clone
##iba
sof
bathroom
interceptions
renewable
retailers
privilege
merging
tulsa
##mc
##gem
##aret
alm
dividing
##sha
inspiring
boyle
mighty
ensign
007
laboratories
alberto
hellen
sorry
reverted
ramsay
genetically
analysts
inexperienced
conspicuous
jov
wah
zam
beams
##uded
relics
agar
##achlan
pitchers
##steen
niece
lutz
satellites
yankee
stamps
spitfire
zeb
##eco
timbal
##onds
upward
beloved
sims
jackets
interval
speedway
captaincy
awes
sava
optional
redeem
pumping
herbiv
epidemic
jakarta
wards
thess
topp
comets
spice
tres
##icals
relies
deserv
monitored
lara
anymore
declares
snout
logistics
rosberg
steelers
1778
##utsch
sparse
morphological
aaa
isabel
marseille
apt
duc
gland
hau
##orio
##esia
anj
orang
scher
##ogist
chartered
correl
timeslot
propose
ulster
melissa
figur
quarterf
favourites
yellowish
experimentation
katrina
sylvester
betrayal
##jevo
nutrients
enlighten
kro
vort
##gang
##wulf
traps
##ryl
emigr
slash
obey
eastwood
entities
bullets
1822
aerosp
sora
inherent
sophie
bacterial
choreographed
reptiles
compartments
illuminated
kicks
muc
piet
sled
ubs
vr
##vre
##si
##aran
withstand
spock
shipbuilding
yorker
favre
cutsc
curving
capitalism
foreigners
1807
sensation
shutout
forecasts
havana
rejects
cowboys
calibre
dyer
miser
##pitz
shit
claws
raja
privacy
taxonomic
bakshi
satisfaction
antoine
invincible
illegitimate
iber
mn
##vey
##eded
sticks
##uling
unite
##ounding
disag
boo
funer
287
##geschwader
palae
regulars
myths
chaotic
infectious
scrutiny
bale
bits
##his
##oj
##fol
##elves
##estation
leone
spines
manson
##inty
respects
##hydr
representations
bulb
encouragement
murderer
lisbon
updates
##ythe
porch
ascension
condemn
ourselves
keller
##gg
forrest
hern
##ogram
drained
warns
##text
addict
##inka
destined
virgil
graded
acquitted
distributor
abbott
errone
stereotyp
rodrigues
hirosh
emancipation
footh
sd
waff
##fin
##rio
##opers
bois
severn
##rosc
statesman
needing
rhod
lucia
customary
pioneers
tirpitz
summarized
cascade
grazing
##alam
stow
shim
comply
appalach
diver
harlem
skate
##screen
hamlin
brownish
darius
lincolnshire
bypassed
recipes
hooks
ceded
sacrifices
chenna
defenceman
omega
cain
##16
##oise
plann
recounted
brake
agnes
willam
selecting
turmo
rafael
fragile
courtship
lutheran
balkans
invertebrates
timbaland
disagree
cary
cody
peck
tic
##mb
##hies
##olini
alerted
wholes
##ersion
enqu
charities
parrot
##uga
emigrated
pools
headline
iris
sawyer
rapt
psi
##uffle
imagined
arcs
ellie
spotlight
chestnut
predictions
diffusion
backstory
gymn
posthumous
##occupied
backlash
hord
kitt
kling
kaf
taw
##olin
forwards
regg
augusta
keats
cyst
statutory
horace
##chem
wardrobe
synthesized
picc
tightly
faults
laurel
spaniel
reappear
boll
##arse
manpower
epile
##azi
cheroke
##ippers
paula
committing
1840s
sailor
predictable
beverly
nigeria
nguyen
turmoil
sway
ting
wi
##iso
roch
lawn
equations
traverse
##linary
deprived
repeating
whitish
surgical
breathe
coincide
tortured
dolphin
subdivision
wiggins
roland
siv
vu
xl
##heaster
toad
impose
midlands
##boo
suffix
melan
debuting
healthcare
ridd
mugh
offerings
nomura
diplomat
lizard
hobbs
evaluated
kv
inactive
##icates
##ysical
busiest
costing
malaya
batch
plea
accidental
transformers
obliv
##heasterly
huss
lament
beers
chis
##ifting
contests
himal
schwart
finalists
demograph
storyboard
speer
viad
haas
graphical
archaeologist
marshes
yuan
unconstitution
distracted
philosophers
amalgam
cag
cair
gros
wishing
##orp
unpr
barlow
passer
discrimin
arrests
finalist
##shot
browne
ideological
cartridge
pairing
mercen
sigism
vigorous
extermin
icelandic
jagd
krakow
mug
##90
##alu
secession
northwards
##odeon
medication
requiem
burnham
375
journeys
litter
lockheed
teddy
stereo
discouraged
vaccine
contaminated
viaduct
nud
##pat
beard
##embr
chate
dew
eno
recession
redisc
christie
mcdon
punished
impress
oilers
progressively
assassinated
pillar
receptions
aurora
incorrectly
paraguay
aluminum
interspersed
dab
lure
mh
moul
##isco
##ecki
onstage
##apest
unidentified
clans
operative
brezhnev
antis
billie
pius
##aniel
photographic
lifting
clarified
sorrow
weaponry
bags
reciproc
pronoun
biographers
dwarfs
mifflin
##rab
alison
overr
parental
assent
belize
morales
robots
mccool
confirming
logs
santos
harmful
disturbing
prefix
restruct
chilean
liaison
muscular
mard
tec
theolog
asleep
##agar
gubern
greenwich
considerations
kras
boron
elevations
refugee
appreciate
explanations
hybrids
knockout
luxemb
nickelodeon
xiv
##try
##17
##houn
##yb
andri
arrog
clara
##anson
sob
1600
broadcaster
sieg
cobra
betrayed
linebacker
undergone
bhar
psp
rites
thai
##ogens
midwest
initiate
takeoff
literacy
smithson
mutations
imagin
chorale
vicious
saxophone
mistakenly
zurich
consecrated
lifespan
gc
omar
sacks
wies
##dings
##eka
##jina
tod
##recht
##utta
shun
grape
gramm
##iewicz
irwin
gradient
dispatch
taxa
##islav
budapest
responds
cricketers
dangers
gamers
scranton
migrated
kissing
folding
magistrate
relativity
algorithm
brendan
gubernatorial
cun
giles
##nis
##zone
##will
unreal
dislike
outlet
monaco
defines
mixes
contractor
cyclonic
racco
cancell
allev
fascist
aerospace
pug
tug
##litz
##rip
perl
perkins
carmen
fallout
catap
impressions
emphasised
gaul
sadd
moody
prayers
populace
anxious
bavaria
hap
kag
vrs
scal
intake
alloys
blizz
asset
##eye
guang
receip
keating
squid
confessed
postwar
winding
hamasaki
samus
greenwood
empires
masks
mastered
tsun
rebellious
genetics
briarcliff
pawn
rink
##eni
##itas
suez
attested
joa
phones
freel
trades
improper
judith
chiefly
eyewall
nasal
institutional
cocon
baha
ribbon
flowering
utterly
gettysburg
reggae
cindy
kc
pitted
##yne
##jack
##edict
affl
deposition
realms
eaton
kosovo
extravag
artefacts
andes
##unken
newborn
drac
signatures
moran
assistants
preparatory
apparatus
mercer
swimmer
stereotypes
fluoride
odyssey
nomenclature
hiroshima
##tec
##rav
##hog
##yx
##rehend
neolithic
##ophor
orr
amassed
mankind
aclu
practicing
scenery
domains
foxes
barbados
1788
fashionable
bourn
neglect
sweeping
montenegro
guinness
catapult
eh
ij
jing
lets
vita
##cut
##ilo
##umo
afor
##rae
capac
##ementioned
furt
freezing
uranus
ambushed
unsuit
1830s
trailers
priestley
gamespy
hebrides
futuristic
jeopardy
hydraulic
willamette
gb
tipp
als
##ulum
##opic
shattered
trash
interrupt
thematic
majors
paterson
farrell
royale
denying
31st
physi
globally
##holder
pioneered
eurovision
pilgrims
##urgical
cerebral
analogous
gavin
ecosystems
uttar
bum
dard
ef
oro
##zak
anast
##herty
unch
worms
##ultimate
endow
albat
##ilyn
simulation
imperson
streaming
humili
despair
croft
semic
honorable
kerala
nablus
awesome
meng
pell
resided
sermon
revisions
##spoken
greco
donnell
##aea
likelihood
rodney
egyptians
deliveries
sioux
cousins
disagreements
stingray
kensington
transactions
equestrian
bafta
hmas
ibra
vc
##zb
atroc
##ueger
generator
surm
barge
juvent
societ
activision
purported
##ofsky
##trans
##faction
proposing
partnered
mysteries
laughs
bodied
leonardo
stirling
insurgents
applauded
mercenaries
uh
##enko
orator
prer
spa
afric
resupp
regulate
monmouth
belts
loops
porto
renumbered
sarat
lottery
530
definitions
pioneering
anatom
renovations
podium
arbitration
mirrors
paranormal
schizoph
evidenced
bae
fishes
qur
##daughter
##uo
theres
wharf
props
spelled
becky
cannes
landlord
headlining
juice
raises
royce
breakout
alternatives
saxons
unreli
ostens
awaiting
pistols
grunge
scuttled
amnesty
ipswich
kiev
wires
##iating
##atical
toug
##amiliar
fores
unused
bres
abrams
johor
elias
maori
detr
participant
libretto
fairbanks
drummond
##comes
confederates
mikhail
cassette
resolutions
ironclads
vandal
fand
##cony
##hole
##illary
recons
mee
##athi
##veloped
dispro
restriction
kirby
##rifying
hesit
brewery
ordinance
bother
derm
gne
vague
wain
##iere
##leading
alge
##aguchi
uninter
becket
intox
##ruz
connie
cutter
curious
rollins
tablet
gloucestershire
staple
swallow
impaired
homestead
aforementioned
schizophren
exert
hertford
incurred
##ignant
##ilee
refuel
proposition
crossroads
professors
statutes
239
burma
penultimate
munitions
documentation
installments
arkham
explorers
hymns
intervened
grateful
vanguard
nico
pumps
##nitz
##moor
##fman
##fighters
##igated
prow
##ifolia
##ocre
larkin
periodically
denoting
reasonably
livingstone
carlton
santana
jonas
dialog
glasses
decept
inundated
flemish
demographics
fits
hards
jod
wic
wyn
zhu
##uru
anec
##oko
relent
preacher
airmen
affinity
burd
browning
researched
guarding
planting
examinations
ecst
beautifully
wonders
reichs
flavor
natalie
rufus
dairy
guevara
tb
enables
##ollah
desirable
edith
titanium
humid
communal
combust
admitting
activation
urgent
sampled
excer
pays
borg
shelf
tablets
polygon
harmonies
expertise
eclips
checks
esteem
inadvertently
bunk
fanny
hust
lime
lanth
##rise
##arium
##elet
atoll
defer
arlington
traw
##ucher
elis
assy
opus
builder
booklet
replen
microscopic
ignoring
lucrative
contrasts
paperback
teller
thorium
grasses
hubble
overlapping
scoreless
remarkably
longh
knocking
gifted
rendezvous
excerpt
latt
##xes
##igua
##isto
##uns
##pless
##week
mona
0000
##ledo
obsession
horrible
35th
fairfax
ignore
470
unfamiliar
cobain
carpet
preserving
overshadowed
cherokee
aure
bony
nascar
ranc
stela
enr
bravery
blur
longitud
archibald
401
declines
diaries
caul
dunstan
corporal
777
trenton
seizures
baxter
jardine
rij
sins
yester
zx
##mod
##wat
##ono
platt
craters
rooted
carell
strauss
glo
##obia
titus
christgau
administrators
hoover
birthplace
permits
hello
commemorating
grenades
delighted
iroqu
feld
jade
##hra
##bels
##othed
thatcher
##osem
upro
drill
elaine
superstar
imports
diabet
punj
exploits
telegram
##frame
obligation
grenade
riffs
spheres
subfamily
cloverleaf
stephanie
unconstitutional
kuch
nm
yong
##kamp
thwart
##sohn
landis
redsh
implying
glaz
skip
rockwell
232
uncredited
faul
verge
polyg
listener
dictators
##chwitz
cautious
sanctioned
plaintiff
lobbied
##pec
theoph
##onte
##ethe
coma
arv
##anta
clive
wherever
harness
antit
590
predominant
sutton
electorate
eminent
falcons
hath
tert
xer
##cile
##edo
stel
##umar
##ipes
boer
##onson
novak
loads
classifications
camping
titular
##hammer
cao
supplying
anglia
retrospect
fermi
mitochondrial
genocide
##atore
toledo
##emate
ate
208
truss
##sein
reclass
goose
##ibus
teaser
elbow
medina
##aiman
uncont
##chet
parishes
neutrons
reconcile
masonry
saratoga
aquar
nate
yus
##æd
ante
spurred
intest
##luded
ported
animations
modeling
chronicler
daley
##optera
##gradation
conceal
mocking
conferred
sigismund
gp
hides
ragn
##xy
reused
##iale
carac
reginald
mcgovern
puls
1781
padres
molecule
skulls
parasite
cylinders
legitimacy
##cw
##rama
##mor
chir
chapp
##umont
unauthor
manch
stras
meadows
socio
refrain
counters
petit
238
sandra
legislators
mythological
expectation
mls
encountering
ponies
facilitated
prostitution
regeneration
peripheral
faded
##rea
aman
shepp
endless
rainfor
hubert
collaborations
owens
armenians
degenerated
mcgill
telecommun
schwartz
ibrahim
dhar
jug
raced
##kal
##olet
blessing
geometric
smallville
captures
weekends
croats
analogy
shootout
barbettes
cinemas
mackenz
wendy
compartment
lichtenstein
bain
ect
lm
oasis
wired
##whe
##etz
forfe
##idus
##avers
##ppo
brink
annih
imposing
mores
rainy
pleist
tasman
##ariat
mutation
bitch
definite
hobart
ripley
subscription
mariners
versailles
unconventional
hilarious
##zynski
premiership
unsuitable
detriment
dess
gimm
sik
zimmer
##ienne
goat
overland
induction
wrath
##ribes
idi
magma
##aldi
recognizing
quarterly
feral
encourages
1787
dramas
sortie
vulnerability
gird
alps
##umen
##asting
desmond
blessed
barth
repatri
skies
routinely
inspire
##islaus
rhino
babies
52nd
fueled
genuinely
sapph
kerrigan
succumb
ustase
diabetes
kud
lied
ucl
##horn
##anians
##uria
forks
rez
##emason
quag
phara
polyn
gund
1700
medications
yorktown
salaries
##ooner
focal
faust
attendees
yorke
##niks
vampires
semifinal
compassion
dundee
transfers
zerg
##hang
##illusion
notch
##ogl
disillusion
weir
barre
famine
internally
goldberg
audrey
unsatis
falun
wolfgang
dependence
mediocre
invasive
supremacy
enlightenment
samp
sells
##mour
##uen
##isi
neum
marilyn
cracks
underwood
exposing
avi
##undy
patience
confuc
superf
modernization
##ascular
convergence
950
sickness
butterflies
migrate
inventor
macedonian
ugly
caucus
hiking
chateau
bournemouth
mural
##rard
chino
sepin
##odic
shades
uniqu
spared
indec
squall
humble
directorial
vocabulary
potent
collaborators
strengths
fixtures
danielle
rudder
laughing
lansing
mackenzie
sepinwall
cact
cumb
rc
##cus
##buster
##just
209
usur
desires
raider
trophies
mermaid
samoa
##beg
susque
corpses
bordered
colorful
logging
ramsey
bella
scarborough
pseudo
bursts
c5
sass
##utant
interst
stature
##afa
affirm
competent
madame
bayon
reactors
ringo
oss
hypn
kimber
mesopotam
capsule
conveyed
vowel
lanthan
gt
##nected
##vich
inlet
rewards
unac
##abis
workforce
shortest
burrow
voter
motte
identities
ridic
##breaker
necessitated
entrances
snowfall
cooked
sidel
reefs
auschwitz
bwv
mole
pector
##kowski
##wave
##aram
chie
retract
transitions
##ups
publicized
humidity
techno
eras
purity
assemble
replacements
orbiting
mahler
friedman
thornton
councillors
resentment
discontent
buccaneers
chennai
pleistocene
doses
hints
##iard
##rance
##oos
inject
##abouts
shetland
##000
disasters
slick
morrow
voor
aeros
narrows
monumental
bosses
proponents
wilfrid
jubilee
asymmet
fatigue
lively
sach
tore
##uper
sein
firth
contamination
useless
217
importantly
penis
hindered
griev
container
katy
cocaine
weighs
adulthood
smithsonian
leng
pills
thigh
##adors
como
cologne
##ologic
##linger
possessing
seneca
differential
229
salts
forehead
frequencies
layered
favorites
molars
737
pige
vegetable
cartoonist
supersed
sarajevo
clutch
luxembourg
cds
lid
zhou
##anj
onward
degradation
shine
geneal
propriet
localization
pett
needle
285
caen
doctorate
taller
validity
revelations
sgt
narciss
triton
bk
gadd
##bet
##edience
##ayne
##estown
deeds
blink
maud
soundsc
troll
irvine
roberto
ecu
tanker
rhyme
jenner
whitman
byzantium
thunderbirds
loyalist
noticeable
vernacular
athenians
nocturnal
pizza
ead
itza
##ags
seoul
##illus
sheen
##onshire
guill
milford
advisers
housew
hydr
injection
naruto
beatrice
32nd
complaining
handsome
1779
distinguishing
##engthen
brandenburg
culver
bugs
pardon
marceline
baird
hels
kern
tf
vt
##omic
heels
awarding
popularized
richie
narration
purchases
rescues
gilmour
jesuit
balkan
tardis
pigeons
gage
gotten
kali
silt
##hil
##antine
##oughs
notor
flux
brows
juno
skins
##hyd
motions
creativity
##umbling
awful
ridden
yardley
savannah
767
ventilation
##escu
obstacle
gemini
detonated
cigarette
uneven
epsilon
iroquois
fuse
jockey
pang
##eaux
##aghan
abel
server
##ucer
parv
soy
peach
skiers
squares
caste
circuits
hostages
intensifying
540
reluctance
subsidies
nurses
spitfires
weaknesses
aristocratic
cork
dap
gus
taped
wint
##icy
chairs
##alla
reside
musket
##athing
portfol
colloqu
lawsuits
delaying
mystic
rudolf
1900s
rejoin
chetnik
prophecy
reliability
hats
##hoff
##educt
intends
mang
drunken
##anking
matric
greed
##iken
veins
bowman
sampling
professionally
weights
spectacle
comparative
muddy
zeus
antibody
blamey
interfered
rhetoric
squarep
dare
uter
##crew
##atio
##omatic
brakes
thrill
##phones
##opsy
ballard
##iosity
waist
##lights
##namara
mortars
mandela
courier
transitional
konig
bastion
##combe
narratives
prerog
ohl
werner
##rish
##mot
##pad
##heid
##atitis
fran
amman
bliss
slovak
impart
228
ballroom
burnley
##uku
rowan
banquet
bcs
ceasef
remarking
horton
pornography
kriegs
frankfurt
##cers
thie
troupe
scent
filmfare
thresh
monter
##anca
designations
##iamen
252
merlin
shotgun
reflections
llan
hypot
polymer
prologue
stallion
botanist
caldwell
obituary
wainwright
bors
daring
##won
##acruz
stard
chassis
filmography
##grave
revital
phi
simmons
mainline
slovakia
barges
lae
royalties
escorts
disappears
banana
520
calcutta
vertically
feminism
sigma
flexibility
manifesto
extraterrestrial
hinted
kink
##iu
##inters
shat
alliances
centenary
recorder
handel
lett
informing
greenhouse
josef
abandonment
rodden
treehouse
attribute
corresponds
680
shrub
shearer
mackay
aqueduct
parameters
petitioned
amphibians
discourse
assigns
escalated
ultravi
consortium
reworked
catastrophic
uruguay
biod
iter
ndh
##jav
##aying
caric
moose
announces
##ermo
contractors
odor
pathway
challenger
dubrov
1774
kelley
720
sihan
shocking
##uppen
marquis
landslide
raptors
pharaoh
ein
tile
wakes
##alom
##adder
sek
##akan
prat
grams
strains
coler
invite
matsu
divas
chee
confesses
angus
212
sums
freeze
palmy
brotherhood
luzon
compliment
batavia
rearr
dwind
gilligan
megad
ornament
deteriorating
beauchamp
prostitute
showcased
peppers
anterior
nissan
bn
eats
yacht
##orial
##umer
##ifix
##ocl
herring
incurs
edged
barns
famously
bestowed
royalists
apex
hillary
veracruz
approximate
olympus
##factory
katie
controllers
constituent
flourished
applicable
prefecture
metabolism
inaccurate
sot
tj
chips
oricon
amtrak
edg
creed
##ieres
finalized
swarm
calhoun
roma
fielder
popularly
woodstock
literal
doctr
candle
dunes
42nd
cooled
bridg
pigment
flanking
icons
detectives
emanuel
ascended
ptol
chetniks
torrential
##adt
beacon
anark
unification
##qua
upbeat
##ahi
calig
standout
##atorium
vera
misch
oakley
navigate
neurol
sihanouk
sire
##aski
fries
##acking
caret
finite
parry
safer
defens
northerly
rupt
melted
emerges
undoub
namesake
pollen
bottles
rubble
corrected
capsized
evaluate
wreckage
fernandez
indefinitely
hotspur
unreliable
ostensibly
90s
cen
fancy
gj
ole
yel
##aras
chong
##odrome
##arten
unlo
mathew
convent
labyr
specialised
malone
empir
cmll
heroin
pinfall
niche
gangster
illegally
coordinates
braat
populous
convenient
exacerbated
ging
nero
wen
##wara
##pill
##hequer
##oner
##acio
heel
spanned
adren
scav
shipw
##raph
gunner
organising
##liner
exchequer
mustaine
recognizable
pastoral
##werp
olig
immature
dunk
stripe
prospective
pyg
evangelical
undoubted
gaut
penc
##four
##elier
crushing
roost
emile
endings
antagon
##coe
irons
praises
biographies
undis
dvds
rabaul
nagasaki
asserting
receptor
orchestrated
kafka
unaccept
roddenberry
cg
hott
nou
sb
##esian
##quito
tej
phall
junct
##ypse
farn
historia
consistency
litigation
soror
pelop
advocating
crucifix
prosperous
incompet
comrades
yesterday
lill
##aen
##inate
204
spaced
##aste
clones
herds
residency
perished
##prints
elton
antenn
##onyms
##aughty
pressured
injuring
fantas
minimize
oaks
fishery
hastily
nerves
sporadic
skeletal
foliage
mathematician
unseen
transparent
blizzard
labyrinth
lull
sorts
tuc
##jet
##eliness
forage
##imar
angr
contenders
uphold
attach
remembers
##tones
expulsion
millionaire
posture
##hampton
moors
earls
closes
raph
darryl
interacting
transforming
conscription
utilize
stemmed
loaned
fractured
wizards
repetition
unfavorable
squarepants
bok
gown
hain
iod
##bled
ansel
exited
prud
spill
magna
##heny
natasha
##afe
toro
latitudes
pursu
steamship
spectator
luminosity
crippled
pectoral
cues
lh
lining
##ept
atkinson
unpa
##aceut
blows
elsa
monolog
defunct
estonia
neared
cheet
replies
positioning
narrated
alexios
rosenberg
meaningful
##marked
accompaniment
disciplines
executions
furnace
honda
pawnee
incapable
chevro
tattoo
filipino
##jor
##orously
hezb
arising
clitor
outspoken
coats
antwerp
waterways
garris
credibility
occupants
325
trustee
coolidge
murdoch
heirs
aggregator
dioclet
unemployed
envelope
ceasefire
nail
##makers
##pani
##ellular
marches
schul
backward
justinian
juxt
rae
titans
ledger
##neg
clements
216
sentin
auditions
erad
gardiner
34th
collaborate
sustaining
linden
welch
luton
crusader
deterioration
spoof
sentimental
transcription
grabbed
pusan
##nasium
oryzomys
diocletian
dared
mish
panned
rector
##aise
##tical
##yder
##odian
##ocles
unequ
hadn
graf
##uges
terrific
##ahaw
discern
topography
spee
249
granddaughter
woodlands
northernmost
bridgehead
taliban
mentioning
transforms
naive
sorcer
acknowledging
hammerstein
pledge
dopamine
reeves
befriended
cutscenes
unpredict
lilly
##sson
##jans
##stant
##etown
whal
deutsch
##onda
interlude
mined
imply
nighting
insec
motive
##drich
liberated
##ystidia
chemist
##osaurids
consultation
renault
tumor
astronauts
regulatory
slovenia
intricate
neumann
ultraviolet
loth
##iq
##xi
inequ
##itra
##stairs
whaling
deut
scaled
teens
terrier
statewide
concussion
detract
gladi
organizers
lima
encore
briggs
cube
jules
vacated
sculpted
attorneys
hogg
neptun
magistrates
megadeth
hezbollah
fs
nant
stav
##chool
arthrop
elgar
remedy
##ausible
monoc
##nington
winthrop
255
##ominal
believ
bodyguard
businessmen
322
kramer
rodents
cephal
tamar
philippe
yeoman
marquess
bootleg
inverted
apprentices
periphery
eject
fade
nib
yemen
##lius
##vil
ingl
##icer
##adas
##ivities
canoe
remembr
countess
provocative
##ullah
octopus
rockstar
behave
readiness
luigi
assemblies
darling
misf
tuition
sights
gentry
behaviors
klaus
##angelo
tillman
ppv
middlesbrough
goebbels
disqualification
barrichello
garrisons
gis
mama
##eau
##vir
##uh
##icians
##adar
##oway
##agle
##rious
brighter
incar
maroon
carv
musk
smythe
262
excuse
establishments
ivory
scheduling
splash
patrolled
dietary
sustainability
alkali
voluntarily
recaptured
skeletons
bauer
docked
##vald
neat
henrik
galland
fearless
stephenson
stockport
senses
910
lobbying
spontane
flawed
jelly
pf
rica
##uky
##icultural
##gean
brac
quasi
northampton
grouping
stepping
builders
irr
tarant
depressions
psil
karma
pickett
townshend
hannibal
relocate
toulon
disgust
graffiti
waffen
algebra
ropes
sval
tires
##zas
##iland
##agos
incis
parodied
##ieri
##leys
modelled
detain
##closed
commandant
affiliation
libel
jewellery
babe
reinv
mutant
orioles
kalam
aggressively
geared
conspirators
##opposed
recapture
##enbaker
hammersmith
juxtap
cb
dief
korn
##esque
##imus
##ectic
ort
arched
unopposed
intend
majest
volatile
palaces
fundament
compliance
mosley
mandated
shrubs
otis
roche
mysterio
ribs
ponds
wounding
##fuhrer
bamboo
awakening
archety
duct
rf
##iov
##lace
##pen
##jak
ornam
##gender
recoll
flocks
poses
directional
southernmost
encro
robes
vulgar
procure
livery
scorp
bulkheads
yields
fascinating
foley
gymnasium
rahman
stamford
coventry
adorned
##ocytes
pivotal
enraged
kriegsmarine
braathens
70s
ail
bump
ia
ironic
mce
##22
foresh
brant
amelia
coen
induct
battling
##obo
crossings
##ipple
233
massac
biom
commentaries
dunham
psycho
sensational
crisp
##radar
ayy
nikki
desperately
##omorphic
forcibly
appalachian
chevrolet
diefenbaker
jared
kors
panch
##vation
##icable
offences
outcomes
indist
minig
continents
steered
schooling
234
madh
economist
doubling
sundays
sinister
rubin
980
hurd
reunite
recipe
shakur
reorganization
hodg
longitudinal
dazz
gator
vista
##des
2020
##ldon
spru
spikes
trich
abort
grains
percept
agn
##fulness
mori
duly
sniper
##writers
dynast
psychic
pulmon
santo
reinforcement
1782
transmit
bypassing
fascinated
fertility
easterly
hilary
insisting
overseeing
nonsense
dubrovnik
bounded
mald
tama
##iry
asi
clamp
abst
alloc
##plain
weaving
flute
##ksh
##angle
dives
downfall
interned
##enthal
embank
qualifications
hawker
imperf
battered
shareholders
hinduism
sanctions
restraint
phosphate
invasions
ganesha
codenamed
albatross
fost
hilton
kolk
qa
sasha
tess
##kick
##stick
scare
##angs
empl
deficiency
setlist
obverse
##encement
sumner
donovan
paine
erich
panhand
wrestled
darlington
questionable
crowns
exclaim
shrines
scrub
rudd
preface
fortresses
denny
laguna
bethle
hakkinen
denominations
ceramic
revisited
lumpur
sabotage
cancellara
##andum
trun
claw
fend
underparts
capita
gretz
militants
211
archd
verdi
logar
heightened
variables
brightest
dresses
pulls
konigs
sparks
picnic
bengali
dilem
aubrey
fingleton
gastro
encompasses
anaheim
tibetan
reclaimed
yahoo
insignia
rims
##zep
##anelles
androm
##ayas
anonym
exiting
disob
disabilities
wey
centaur
##classic
refitted
summed
hyster
textures
alias
molar
whitlam
mystical
rpm
kidnapping
metabolic
haunting
scandinavia
arbitrary
undisclosed
gild
rite
##kle
##kap
##rone
##pher
crested
fines
servic
demobil
##otto
superficial
lowlands
covert
fielded
##itaries
francisc
walters
sirius
compressed
fatim
tallon
unlocked
##changing
paramil
consolidation
consolidate
pharmaceut
jorge
toilet
aegean
bethlehem
bites
poc
pets
xavier
##top
##atable
defects
schu
receivers
lax
squee
humber
solos
testify
injust
semester
batters
logistical
etat
proportional
receptors
crustaceans
hazardous
cemented
goebel
lydia
angrily
nightingale
incarcer
svalbard
jeter
wł
##zef
##utic
shab
amusing
##olls
commencement
cared
elena
polyp
magnes
##ommitt
determines
recommissioned
bronx
burials
bibli
summerslam
mormon
pablo
gail
zappa
forged
regroup
##utable
seph
seizing
offseason
knees
quinc
schn
redund
reputed
##ikos
raff
militant
programmed
burgh
frontman
roundabout
masked
vanity
mosquito
spinner
conditioning
locker
bunny
ryder
dawla
clapton
staunch
cess
ged
gently
lore
mapping
nah
nuts
yun
##cat
##oin
##jin
##48
##arp
reinc
whigs
outset
bloss
##full
##ysław
##affected
certainty
cavern
reflective
hussein
stephens
mortimer
miley
cello
eliza
pinch
liszt
broncos
sidd
wagga
dictated
stylized
prevalence
shouting
tyrannosaurus
undermined
##oglyph
forerunner
reclassified
chieft
bov
mord
nil
nansen
##rans
##onies
stacy
##estones
##antically
abused
drastically
##grav
liam
saunders
##inched
handing
baba
rosem
slept
sensibility
licenses
gaunt
utilizing
andreas
sibelius
gotham
honeye
francesco
##keepers
daddy
inconsist
uploaded
##gars
##fig
##erian
##orb
##osures
integ
mari
coel
simulated
modify
famitsu
shortstop
markham
##araja
separates
disperse
peterborough
kruger
oversight
entrusted
diagnostic
poisoned
botany
selectors
aleppo
ruthless
rushes
orchard
masculine
sidelined
sain
tand
zig
##tis
fraz
##agin
shik
scared
schen
mangan
shea
##plet
flock
loxton
##eneuve
cheers
antan
leth
juda
colonization
wilkes
##ushi
digits
suspense
revolutionaries
surveyor
dangerously
reconstruct
diplomacy
panther
tastes
frustrating
aristotle
compromised
choreographer
restrained
andersen
satisfactory
inconcl
undoubtedly
bids
coss
fiber
##gement
##jun
##56
##elian
##thia
formulated
avid
##obe
rests
purd
lowering
alexis
benoit
ironically
aztec
nominees
mozart
strokes
hedgehog
caudal
gretzky
bp
fia
##zhou
conject
brat
contended
##ondition
mew
thrash
genital
pee
liability
##hne
harlan
steph
##byn
flees
sunrise
##writing
##ographically
clarinet
740
gibbons
metropolis
##broken
recalling
encompassing
marxist
viscount
kathy
rm
recur
intu
showrunner
##burst
wilder
synonymous
343
pathways
hobby
manipulation
caucas
annoyed
dlc
jewelry
refurbished
schmidt
dracula
aol
cute
hatt
javan
sj
##rador
##arum
##ouin
##ionage
##adia
##iduous
##avis
##seau
famed
imprint
osborne
luna
otters
apocalypt
anarky
aali
cey
ewing
ricket
tau
wich
##olation
recuper
##okovic
timed
crashing
##ksen
gamepro
posing
schooner
##parents
ordained
woodward
urg
denoun
chaplain
springsteen
drumming
adjutant
unfold
integrate
frederic
leno
mimi
hieroglyph
bolivia
nectar
izz
kah
tup
##uaries
##adilly
##apul
##opian
pras
weinstein
##ibu
presiding
schult
##iversity
eastwards
demean
glitter
##ussen
markers
cheating
blackm
##berto
organise
propri
snyder
balcony
coldplay
concentrating
reigns
polyt
loris
cobalt
stereotype
chaluky
dissatisfaction
solicitor
##intyre
dardanelles
kopp
##onius
chatham
resh
obli
nationality
helpful
219
labrador
holm
apache
sita
##ettled
strife
tuning
grooves
slea
510
greyhound
abdominal
1758
erratic
engraved
sneak
dispersal
nellie
python
haf
lash
pork
poured
wary
zar
##human
##atism
##plan
##reep
directive
classroom
eukary
parkinson
cyril
superiors
burnett
hearst
sighting
djokovic
disturbances
acceleration
anchorage
posterior
ransom
##volent
susquehanna
aaliyah
meck
##orical
##aille
avro
hume
villeneuve
grandchildren
##zew
pacing
cannabis
##ajo
strategically
fanning
rugged
disciples
ayles
elliptical
rallied
apocalypse
coherent
dynasties
kut
rave
rother
##gum
##edes
##orah
beeth
##iste
recomb
##athus
perspect
harrier
steg
headlines
237
burge
rebirth
biochem
derive
novelty
screenings
terminator
buyers
subdued
idolator
xxx
##roscopy
vassal
piccadilly
moy
##cell
##green
##path
fring
207
araf
priced
##asta
allman
##ignon
wei
weis
playground
chariot
slap
legions
christchurch
paige
221
volks
modernist
excurs
macro
espionage
productivity
sensory
1784
adapting
unpro
forbade
switches
membranes
gorgeous
fucking
sewage
handicap
vh1
reznor
threshold
aet
##rt
asex
##bergh
plotting
clocks
mares
marred
coe
expands
barbed
explode
differentiate
sonata
bows
activate
banjo
spotnitz
brightness
acidic
unpubl
khanh
temporal
assertion
sutcliffe
swinging
wandering
serpent
krajina
maharash
secrecy
mughal
antananar
rue
teng
tusc
##stood
shp
unpleas
spies
##astics
##geon
carrie
preaching
boog
edict
schles
##iero
roadways
glove
originality
locality
morse
veil
projections
ballots
bowen
fleetwood
martins
violating
gregg
bidding
executing
puppets
bounce
interrogation
abbreviated
unacceptable
remembrance
dell
##olulu
##opia
untr
unspec
spieg
##aryn
marr
offended
finely
thru
tern
##heng
firepower
archaic
devoid
curry
applause
reactive
precinct
ernie
phonographic
denomination
pembroke
detachments
cheetah
beethoven
db
gom
rt
rik
##note
##oire
framing
shill
residing
##ogg
##plets
imitation
quay
##brate
obes
redding
##isma
menace
whitehall
contributors
packaged
bolster
vegetarian
tanz
loyalists
rejecting
sylvia
phylogeny
schizophrenia
caretaker
aisle
dib
lange
siding
zir
##wester
##ako
recounts
brab
##ouses
##ittings
elastic
thromb
quo
minus
redef
##erne
impass
raft
initiation
histori
differentiated
227
judah
distributing
mupp
utilities
fuji
dickens
traction
reservoirs
caterpill
komn
inevit
moths
disadvantage
vukovar
selenium
prerogative
antananarivo
ping
##chens
##arra
seac
##odus
heron
grasp
peruv
fender
##ucent
basing
inviting
distortion
delic
valky
viewpoint
morg
argyll
trojans
265
keyes
##agoons
##tti
ultimatum
ratification
grizz
mythical
mudsl
seeded
randomly
anarchy
elisabeth
kop
rental
vows
##has
##orpor
##ersh
roh
flaming
highs
##flower
253
christi
irres
excommun
tarn
quests
412
##uffed
mosaic
395
tripoli
automated
forbid
prolifer
##gettable
ausp
reversal
arjona
##croft
##kiss
##arty
afi
caring
carmel
emulate
##isexual
evenly
224
mcnamara
curie
molt
760
hydroelectric
baths
traject
swiftly
laughter
asteroids
stunts
##isenau
abbasid
contradictory
coleridge
klan
pue
turing
zer
##eger
##otov
coated
attire
phar
polonium
invari
faire
benign
prepares
collaborating
##ickson
##iciencies
intentional
advisors
sakura
drifting
evidently
swamps
hormone
algeria
gneisenau
gaddafi
kolkata
a2
fumble
jams
joked
oun
rd
##iantly
##isively
##anders
##ainen
brains
dru
antip
256
##aean
merits
quicker
latino
awake
entertainer
raynor
hospitalized
packers
surely
syndicated
heraldic
tanaka
docking
alcoholism
slavonia
overwhelmingly
lombard
peacetime
##ucci
toshack
melancholy
freelance
gaw
sewer
deciduous
boiling
drilling
knives
coloss
setup
crease
stevie
advise
##psy
honesty
sams
##iffle
60th
bordeaux
drafting
distinctly
collaborative
sherlock
cantatas
ascending
robbins
cruelty
exemplified
sentinel
gems
kis
pads
wre
##inaw
##itans
##urgy
progen
unhe
##ipedia
interiors
evade
wrap
epa
gujar
##uchs
augment
glow
radios
##resses
rebelled
nominally
dominating
memorandum
sevast
horsesh
translates
##ymouth
implicated
behavioral
megami
0600
bulletin
razor
unfortunate
bjork
pharmac
smuggling
inflammatory
unimpr
juventus
moresby
hottest
fod
fist
gour
##arine
shining
upbr
indicted
steer
steward
gluc
convictions
##balls
electrop
circulating
envoys
prosecuted
emphasizing
tellur
virtu
sediments
labourers
conscript
nomadic
usaaf
lizards
lagoon
psychiatrist
beebe
amphetamine
adequately
souven
tunisia
weinberg
seismic
apocalyptic
perspectives
unpleasant
ff
##lio
heid
##thi
##iani
worcestershire
agon
drains
doi
commandos
calf
waterfront
realise
fireworks
animator
projecting
mcne
costello
paler
757
risky
grossman
domestically
calculation
destruct
kingship
astros
sadness
lockout
poisonous
accelerate
algae
pentagon
vertebrates
lamps
laund
boulder
mussolini
disregard
paratroopers
thessal
resupply
raphael
unpublished
nf
##mant
##yad
##requ
foraker
##otron
aloud
whitt
abusive
##achim
maure
simone
harassment
lohan
glor
303
watford
273
suns
crock
faure
355
banker
##gaard
banning
papacy
substantive
naomi
felipe
chancery
migrants
disapproved
neurons
alvarez
phyllis
brennan
imaginative
gimmick
ricketts
##atu
chill
trous
##ustomed
brund
commence
##rops
efficiently
starvation
collisions
entertained
weekday
soluble
projectiles
holst
hymen
arranging
##zzo
alienated
subcommitt
kathleen
convenience
emirates
tungsten
hernandez
unpaid
konigsberg
jovan
lus
pv
pg
##gger
##47
##ouf
##enton
stumps
afro
incl
##assa
hasan
teaches
southwards
governorship
esther
231
researching
haakon
lieber
irony
compression
imaginary
1770
alleging
pyro
dimorph
congregations
stalemate
outraged
resurgence
stallions
promoter
dwellings
africans
confucian
ew
fion
fatty
guth
lenses
m1
ux
##45
##aland
##oler
reaff
peri
weymouth
imax
simeon
gamesradar
freemason
equatorial
volta
specialists
removes
analyt
josephine
pedig
pageant
shearman
manipulate
staffordshire
skirmish
mollusc
sinai
rabbits
aly
diaz
ufc
##nall
##uously
##sie
##ecost
##igor
adler
##idea
thrilling
##ribution
buk
harley
magdal
casts
patents
##axton
donor
devout
bombings
rebound
physiology
esk
asth
censored
sabres
doorway
huntington
kisses
supers
trenchard
evolving
wład
##westerly
irresist
pots
##liche
##yk
##erina
##ushes
trac
abby
commend
remed
monograph
churchyard
lymph
circa
dukes
melina
contributes
haifa
ladislaus
rotated
wedge
commemoration
terrorists
coded
lecturer
1660
applicants
disqualified
sacrificed
coconut
carvings
psilocy
cyp
naughty
wb
##vier
choc
##herst
##ormann
##ffer
disrael
charismatic
##alea
starship
skander
christy
hopeless
disposition
tyne
attracts
kilometer
columbian
documentaries
hatching
virtues
ventral
diploma
jessie
amphithe
obscured
courageous
prosecutors
libertarian
redeveloped
##ynthesis
nostalgia
entrepreneur
ecuador
biodiversity
ayyub
sleaford
obesity
upbringing
fy
hiber
rappers
##uer
##eti
streep
##utan
leah
amherst
peron
boon
drom
signalling
harrow
##elssohn
campuses
damned
##horse
sumatra
injunction
youthful
whitby
coven
##buro
patty
guarantees
mendelssohn
cumulative
wolverine
intriguing
tensei
ammonia
arterial
zahir
lutzow
tasmanian
##pherson
disraeli
ji
oj
pember
rapping
zigg
##lar
##mic
##wear
##pc
##ær
##ummer
incidence
inclus
evelyn
centimeter
whereabouts
##eping
realises
trey
moat
referencing
groundbreaking
robotic
frankenstein
indicator
vacancy
630
altering
coincident
beaumont
deserves
superseded
portfolio
quincy
sevastopol
władysław
aeg
gou
tars
##park
##enal
inel
andhra
##esti
##estim
sput
abuses
finisher
emitted
classrooms
##inki
infrequ
223
courtesy
promotes
reboot
raped
liking
likeness
##aptor
winger
cooperate
aerodynam
bleak
rigging
benny
succeeds
##fluor
newcomer
refreshing
britannia
sparsely
epilepsy
inconclusive
bia
catt
nd
rude
rump
zod
##yar
##alone
beir
trache
finch
parro
operatic
midday
protects
champagne
##ombe
mcbr
respectable
racer
365
principality
indicative
rodman
warden
lamented
kuwa
##iante
bundle
apologized
stratford
derivatives
annoying
undermine
aesthetics
judaism
ceylon
skanderbeg
dude
jensen
kpa
sails
tory
wir
##eer
##bitt
##bald
##elow
##olome
##emaker
ather
prisons
bohr
stratus
joanna
octagonal
mcgregor
api
introduct
honolulu
malmo
denies
##zek
dominic
batgirl
articulated
495
hornet
calculus
bridget
730
implementing
circumc
##burne
bulkhead
burgoyne
marquette
anglesey
caliphate
krypton
siberia
nathaniel
ais
mounds
tect
##omas
##owl
shil
disarm
##angi
guadel
originate
bremen
easton
##hyn
programmer
mcgee
apes
practised
happily
##uffs
hatfield
narrower
##riger
antony
intellectuals
reminds
nimoy
manoeuvre
##ifferent
traumatic
planners
atrocities
arvn
##engthened
bt
dibi
##lf
##jima
##sty
prank
hasn
intert
transplant
##undel
protoc
##ergic
##aeus
presenter
figured
##knot
semitic
krueger
ashford
translate
670
bearer
subtit
iconography
ornamental
penetration
blooms
macedon
embarrassed
exhaustion
aspirin
##orthodox
hesitant
dibiase
hench
ripped
sene
tipped
yi
##dar
##hler
##hift
wasted
foref
clint
##ulton
##enser
strath
edda
showers
simulate
runaway
downhill
justification
refriger
constance
inspected
privat
ambival
sargent
39th
sherwood
corey
revolving
620
piracy
accumulation
outdo
æthelstan
##viks
pentecost
jolie
beecham
nikolai
incentive
warbler
alligator
mccormick
antisem
interstellar
cinqu
picket
sly
##rc
##rils
##stra
wasps
alz
##ulators
chatt
unorthodox
traf
robyn
imb
slain
##gested
antigen
condor
stormed
##raction
burges
cataly
woodfull
##beest
nymph
domingo
33rd
terminate
cabbage
reformers
contentious
gillingham
collapses
hooker
exclude
brahm
feasible
acquaintance
tiberius
indictment
anjou
bunkers
faulk
seinfeld
thieves
introductory
##creen
##tong
##itone
toes
##ulip
deed
deported
seren
weas
##ittenden
peps
airship
artem
politburo
electrified
lightweight
243
hawth
thicker
lovato
doubted
pedal
sabre
920
##ilingual
bulldogs
huffington
aadt
hague
jop
lazy
malk
##fellow
##ndish
##itha
##emani
resented
##izal
prescott
specter
##aires
##lli
lobe
1300
lifeboat
breached
routines
blackpool
mclean
rangef
newslet
verified
salesman
sensual
experimenting
emphasizes
dubious
yamato
daleks
mitsub
cynthia
expenditure
divergence
ignorance
pulmonary
cough
faux
hc
lush
##reys
stokes
beans
##oscop
deacon
##ryn
##atten
phu
setback
swap
kee
214
romani
culturally
escap
multim
36th
terminates
sarc
cabo
kennel
overseen
##hetical
570
bangal
1763
cavendish
accumulate
clemson
strawberry
uptempo
alleviate
dictatorship
majestic
reincarn
hover
##had
##ombo
beec
exchanges
afterlife
gras
graft
nora
retake
polym
descript
##obald
##ometers
realization
debra
245
313
paste
walpole
dissem
colder
970
rhymes
dodo
comedies
optimism
engraving
encompassed
phosphorus
subcommittee
mitsubishi
a1
rower
sable
zeta
##akin
pept
poppy
runoff
infancy
watkins
processor
luk
complimentary
mascar
montage
horseback
##glomer
elemental
paralleling
fuels
parasitic
outdated
bubbles
bentley
subordinates
concorde
inflammation
##ozoic
wiped
endowment
wichita
aylesbury
aaf
bisexual
cv
kik
pach
pomer
theobald
arl
mani
filing
##upon
impe
burlington
copa
situ
puritan
hoard
schedules
polling
repeats
sheltered
dreaming
##ontinent
worsley
dupont
beetle
disclosed
intermittent
rwanda
tsunami
unspecified
dime
ginger
##hear
##atre
##atibility
inward
shire
shang
##sept
clinched
grill
disrep
upside
blanche
revoked
##letic
gloves
##ervis
motown
405
fullback
diab
launches
curiosity
envoy
giul
attendant
tendencies
unfit
voyages
sibu
vibrant
gwyn
fracture
caesium
afforded
confidential
superson
engraver
regretted
##odiazep
caldera
inflicting
spatial
dx
nis
rath
##aney
alarmed
##ulo
dei
exodus
##ptions
brune
##order
induce
mait
maze
acapul
annapolis
banded
confin
realising
homoph
modernized
priorities
jewels
embro
trusts
elders
scholarships
wingspan
bourne
harmonic
cottages
shouted
estranged
worshipped
helsinki
peruvian
acapulco
hiro
tes
##sud
##icke
stagn
##chin
deform
howell
noises
subvers
##obar
antenna
killers
valencia
troilus
bowers
mccall
bulge
husk
negotiation
##omyc
holliday
crawley
barrymore
corridors
vowels
bismuth
segregated
overcrow
eucl
relinquished
splendid
bridgwater
guadeloupe
etern
##cote
##liff
##mul
##bb
##ecker
itchy
##thor
dein
carrick
fours
downt
headlined
humb
equals
potato
##linson
embodied
345
49th
merck
papua
functioned
containers
okay
hartman
rutgers
stabbed
beirut
cote
##mings
##org
neural
integer
weed
overture
decap
flip
##atts
basidia
epoch
specification
divides
##llium
exploding
communion
propellers
sonny
lyons
hotch
erica
microw
accessories
daisy
cleaned
recreate
physicists
tetr
baptiste
##proof
seabird
dusk
kneale
believable
hin
kus
lug
laird
tm
##iery
##pet
rew
shing
arth
regia
breech
blackstone
peten
uncover
##written
husbands
horner
hornets
taiko
870
rewritten
embryos
deutschland
inglis
caucasus
bucks
f1
ubi
##mberg
##fill
##alle
##igrap
spire
abre
ames
appell
##acek
canons
sliding
glowing
##scope
mening
cheval
postc
funnels
connery
286
voiv
509
honoring
judging
vanessa
goalscor
sadler
downloaded
medicinal
reproduced
forgive
ovation
mycen
bohemia
ismail
infringement
mausole
cinquemani
bouts
##iak
##tte
##omen
##omyr
##emu
##ulatory
##andi
##apur
oracle
newest
remot
quaker
##athlon
##othor
juniper
steele
magu
cheney
appointing
antiquar
45th
undet
51st
horned
lorraine
assessments
stuffed
fibers
slipknot
vetoed
orphanage
##witness
confinement
hai
lave
mocked
wak
##iata
##corn
##mata
##page
##ου
notation
disarmed
##actical
phoe
defiance
handlen
northeasterly
244
palp
judas
##woods
empow
festivities
ridg
eyewitness
fatality
converts
999
sortied
riga
tombstone
##ycling
pandemic
vanderb
bubblegum
categorized
dixie
rochdale
##mantle
dorn
e4
eun
kj
taj
vy
wines
##iaries
##32
##isław
##aday
##opods
##abel
intoler
goof
offa
classmates
header
##iento
replicate
reflex
rockies
##ipps
waller
reasoned
burnside
capitalist
unlaw
820
fungal
procedural
prostitutes
symmetrical
reconciled
leyte
undercover
##orporated
gs
jinn
tiff
vog
##noy
##erman
##itates
##avinsky
grt
resorts
cress
criss
diseng
locust
avenues
fremantle
holby
deadliest
oceania
adaptive
1786
lamar
inspirational
sightings
hazards
noticeably
chopin
proponent
combustion
tertiary
fared
gud
hof
lok
mow
mch
ngo
pyl
##bium
##robor
reub
whl
ange
##christ
unman
printer
scattering
crests
##ansson
appet
##manuel
elle
terri
valves
##hammed
299
mixt
melville
dealers
heartbreak
cornelius
deepest
molly
48th
690
rigged
##achev
lucasarts
wikipedia
hertfordshire
magnesium
bd
biting
fn
tav
##adena
byway
fresco
##oplan
una
##antan
disar
##lander
emigration
schur
originates
annul
looting
swam
##inck
wallis
apu
406
##avalona
disposed
bottlen
53rd
hemorrh
ravel
culmination
cog
cue
fid
hagen
nure
ritz
rsk
sous
zak
zng
##iotic
##ʻi
##inik
token
##icium
##amura
stables
##olta
trapping
##ovac
manually
carth
##ierre
passport
captives
radon
believer
mihail
vega
mojo
irresp
cuticle
closet
mccull
selfish
vanished
martinique
maximus
pollard
ramayana
descends
shrimp
freddy
mineswe
inhibitors
harvesting
bavarian
benzodiazep
zoologist
rousseau
faulkner
vanderbilt
cushing
rach
tents
yuri
##las
##moon
##pack
##arro
##igence
frusc
shaking
##arthen
marley
parole
monog
posit
smashing
longstreet
modules
discrep
treacher
mi6
sooner
credible
cruises
managerial
haired
choruses
aeronaut
implicit
baggage
unexpl
ambassadors
##riman
intrins
adherents
conqueror
##steps
##speople
dilemma
tandem
frusciante
cine
icy
jaff
kier
mesh
ration
##lest
##tight
##49
tobr
##gham
crittenden
##activity
##inta
impuls
226
279
richter
hardened
silhou
meridian
tabloid
wondered
ricardo
vastly
##oppy
sultanate
jamaican
telescopes
ajax
bulgarians
pedestal
westerly
domesday
##onderoga
gallantry
herodotus
ticonderoga
theresa
junctions
shillings
aker
cib
nio
##hf
##asim
aless
##osi
##aghy
craven
disd
co2
blucher
aircrew
basins
edna
helg
handles
petrol
##ithers
directorate
civilizations
norms
murals
##gnosis
berkshire
hospice
terminology
danzig
markedly
elevators
hypocr
minefield
precedence
intrud
astonishing
leaning
purdue
zan
##arist
##regn
##ulence
##estr
bute
contend
##ogo
crabs
##uca
playful
stravinsky
retention
headmaster
breton
heli
218
couns
tenant
croix
probation
kilow
karab
conservatory
steaming
joints
bishopric
cadiz
loneliness
guerrillas
mckay
synths
poulton
fugitive
incentives
funniest
oblivion
extravagant
anecd
pemberton
bans
henn
nt
yen
##cation
##85
##rift
lef
strands
slalom
##obiles
angola
realignment
reprint
misses
authoritarian
malawi
excelled
panor
##hiro
pelvic
granada
##frith
quarterfinals
soundscan
archduke
arafat
maharashtra
tobruk
dac
dann
mou
nors
pbs
rations
tamp
##hov
##zai
##pus
##arid
##itical
##urous
stout
chag
seyd
amnes
allusions
relo
crass
aggrav
drav
mays
distrust
geographically
turnover
admissions
jerseys
somme
1773
pearce
kuz
830
##iphant
gestation
benton
tetra
myrmec
inclination
bick
cud
corm
cates
dich
renn
yosem
##dog
##jay
##ayers
alas
heinz
chaco
bragg
resides
stray
cola
edison
beforehand
methyl
diverged
barley
avian
campground
tito
radcliffe
putnam
striped
martyn
taxon
hauled
climates
321
blockbuster
bonding
ignited
gilchrist
##azzi
graphite
taboo
cemeter
collapsing
vibrations
mcmill
manipulated
digestive
cigarettes
reckless
laksh
sheppard
manganese
hotchkiss
yosemite
fiss
hilly
heck
kipp
ness
rund
ston
##idated
##ivism
##aye
franks
##uni
##ifts
scrolling
sauce
doo
starfleet
collects
protoss
antagonists
antelope
debbie
casas
curator
inns
policemen
embar
enslav
rosas
expansive
##pieces
gilles
insurrection
serialized
nitro
blended
crocodile
appendix
cesar
gypsy
beryllium
reiterated
lattice
quagmire
panhandle
injustice
horseshoe
cemeteries
##kr
##gill
##alas
##igate
alicia
##ishable
gruff
fles
departs
esque
lordship
dvor
doctoral
echel
harvested
dao
reneg
installing
alfonso
pups
penetrating
fragmentary
orchestras
aspirations
frightened
luminous
viln
tempest
ceramics
goldsmith
caledonia
restructuring
asthma
eald
lays
mout
tc
vip
##leston
##rase
##making
##37
conroy
fren
prag
##oreal
preach
johan
parity
knot
colise
countless
simba
sloan
chrome
##pora
firefighters
impractical
oliphant
progressing
grassland
rudy
salvaged
disciplinary
##feldt
pasadena
cambrian
mobilized
dishon
overcame
dire
kass
pau
sagan
##enheim
##ersch
ung
leach
##see
goats
##ancey
##ludes
##wey
##intang
disconn
characterisation
octave
242
403
sanitation
garter
contrace
spirited
makeshift
cartil
cartwright
dreamcast
witnessing
cadmium
rudolph
fascination
æthelred
therape
chronology
epidem
zombies
ethiopia
resurrected
anselm
nuremberg
aiding
bant
grie
pik
wab
wadi
##aq
##lis
##zine
##erity
click
grapes
cracked
meer
##inders
guiding
slater
repelled
autopsy
donors
traveller
paley
purcell
mccabe
institutes
37th
messi
confirms
hawke
translator
##azzo
hayden
preferences
pavement
allegheny
optimal
lavigne
boosted
transcript
hardcover
claudius
cristina
outrageous
bolsheviks
mcdonnell
irresistible
creeks
ethel
gable
mitt
pause
sind
witty
##bill
##jiang
##algar
##rem
##rown
##urable
##ithms
##chio
##abes
cron
edmond
##eps
slug
banding
shortcom
angu
telev
donate
donaghy
horrified
informally
economies
hooked
rowe
translucent
freedoms
abducted
mahab
filmmaking
intercourse
conceding
plagiar
skirmishes
fidelity
foothills
telecommunications
unpredictable
shortcomings
bounds
danced
hatter
jem
jav
joss
lair
##6th
##gre
##arton
##arthed
unjust
enrich
brav
securities
joachim
pola
guise
teresa
haley
homolog
youngstown
mirkin
farmhouse
gaud
peninsular
sharpe
richest
pamela
stalls
tentacles
brewers
##oscope
stipulated
chromosomes
arthropods
vilnius
a6
kav
nore
uv
vowed
xia
##25
##icially
shaping
##akmul
adject
tek
quentin
idle
elek
latex
saladin
tomas
operationally
tributes
weakest
violently
musicals
##oula
textil
undes
osaka
fatally
restricting
treasures
hurried
wether
freddie
seaside
arresting
##iotics
gabrielle
igbo
stairway
alamo
powderfinger
ambiguity
unearthed
tanner
enigma
pryce
receipts
prowess
ucla
rimsky
inevitably
trafalgar
cip
fife
nasty
##iol
##cery
##gling
##asu
##access
##otechn
seaman
proton
perennial
deserve
minors
suppose
corb
corrosion
standalone
deborah
educate
quarrel
libyan
benefic
recommends
entrenched
interacted
##lamation
1772
1785
960
diplomats
fabulous
alteration
furnish
suspicions
eclectic
stunned
awakens
tippett
mesopotamia
gim
##enst
##osus
plating
mariana
overboard
carleton
warp
noisy
matth
slu
skier
calvert
calakmul
lawson
freud
insanity
potatoes
5000
cyclists
embell
hoax
southwestward
580
protestants
890
carbonate
namib
radicals
vigorously
reorganised
bending
assumptions
inquirer
beckham
peregr
gags
repealed
feasibility
zebra
borscht
fw
rø
rup
##core
##litt
##fix
##isitions
##acp
ito
unpl
spotting
compil
allusion
roz
carving
##angled
bless
##ilde
regis
scho
inverse
westwards
repay
raimi
oppression
staten
malfunction
saty
loser
pił
penelope
treats
balancing
457
bulbs
masc
expressive
enjoyment
rigorous
wonderland
hanson
tentatively
falsely
gratitude
krupp
squirrel
amalgamated
redundant
croy
wight
wreat
##cius
##zies
##yu
alp
alvin
neoc
arenas
leib
##geois
##idean
maul
castellan
##hya
despatches
morally
saloon
specials
economists
macleod
subjective
intensely
dunl
sweat
tonn
shelling
jacobson
decaying
enthusiasts
##rification
orchestration
assignments
shankly
embarrassing
bmw
guru
cursed
farrar
enriched
fiancee
textiles
bing
cil
dov
kaj
vaz
##etium
##otide
##onga
firstly
gruppe
sheikh
decipher
reminder
email
alba
delius
insom
establishes
meanings
##iuse
diagram
punches
constitutes
sandw
complain
massey
preca
pollock
sensors
riel
snowy
evacuations
mandarin
bernie
rarity
welter
paddle
heavenly
brutality
remarried
adolescent
seaplane
mimicry
rhinoc
outfielder
moltke
dillon
meld
osp
pumped
vive
##liss
##fighter
##jas
##atching
##enbach
##ouched
arundel
uneas
unres
manny
##onde
cof
php
##ternich
##azaki
cores
colliery
241
stylus
##cona
##aius
pasture
investigative
federalist
terminating
lesions
scramb
880
affordable
chadwick
fragmented
mammalian
joaquin
korsakov
mudslides
newsletter
a5
cows
giuse
vance
##wo
##felt
chases
compress
regents
metternich
##ysics
radically
commune
fireplace
authorization
##bek
##hajan
montoya
feroc
temperament
wintering
dynastic
pulaski
minefields
lorenzo
absorbing
acknowledges
bhag
jarvis
vikram
adjustments
poultry
template
alderman
peacock
enrico
##atlantic
reintroduced
softer
cagney
servicemen
merckx
coliseum
precaution
cries
drier
eid
pines
##kop
##komm
##rude
##bets
##81
##eras
##erite
##leader
behest
fram
shre
exams
uninc
mania
disin
coarse
accustomed
buys
presently
pops
swollen
##neros
castell
236
balloons
271
terraces
livingston
pictured
ridley
apartheid
branching
couch
levant
warmth
gorb
scrapping
cassidy
spaceship
spawning
guatemalan
isth
beetles
cisneros
enamel
unicorn
embroiled
banc
luch
nino
##bish
conical
artery
##ovae
afflu
intros
sheila
2018
genoa
buchar
originals
##ancements
downing
ska
halves
waterway
christened
grandparents
uncondition
sharma
reacts
embroid
shelled
gatherings
mouths
branched
bromwich
vijay
arrogant
aerosmith
yeomanry
tarantino
pueb
baz
ferv
hicks
sver
sizable
##aith
##mie
##inho
##orius
sten
##otive
reigned
anfield
##ulg
##unn
##icht
##pta
herbs
twists
overpass
evoke
brod
smyth
milian
##itsch
redist
looted
steiner
demi
helens
251
mohawk
francs
sync
acquainted
bonuses
mortally
pulitzer
somalia
jesuits
cantor
rajinik
turbulent
bogdan
palladium
reorganisation
psychiatry
fluorine
heterosexual
rallies
chromosome
lepid
nouns
wildcats
skyscraper
aquarium
amanita
##ulipas
seydlitz
rajinikanth
bere
fairs
hoc
hvo
koz
sino
xenon
zel
##eous
##lau
##tons
##rak
##arab
##stroke
##acion
whoever
bethes
parag
ella
mae
minel
buildup
mids
jeans
specialty
predatory
dissu
unde
zealanders
lesnar
mutually
mercenary
rescuing
##igrams
illustrious
navies
hazlitt
msn
kidnap
eccentricity
mirrored
threads
##icolor
volleyball
##opathic
cystidia
spruce
unincorporated
bethesda
pund
pfe
yoshi
##sons
##jing
##iges
##estro
subter
309
257
valerie
testimon
nightfall
burles
268
lieu
##iscus
illustrator
assaulting
990
automotive
naacp
jokingly
boroughs
bourgeois
cambodian
irrelev
lebanese
embarrassment
merges
scratchy
anticycl
rijeka
shatner
tamaulipas
embankment
trajectory
piłsud
isthmus
dement
ionian
##xuals
##aloo
##etion
##igy
leary
##ourage
charco
knuck
pohl
brow
longacre
swelling
##obs
inflated
goodwin
jeanne
261
staffel
fantasia
tempered
trainers
molotov
43rd
barbarian
mulan
azalea
yeats
nitrate
cheng
distraction
accusation
dormitory
midshipmen
fruition
##quisite
wholesale
krasinski
punjab
outdoors
aac
lough
linois
xvi
##67
##hac
##fjord
togo
##amon
##urier
depp
overflow
decisively
##azol
corrobor
resultant
videog
407
##ricted
##ocratic
##ushima
maximilian
aspiring
ramones
luca
425
kirch
hydrox
cockro
baptised
nepal
accelerating
bourbon
fulfilling
foil
tracts
mycena
tentative
gladstone
subscrib
subdivided
##ycled
blazers
dissolve
cohesive
heisman
hajj
strasbourg
rainforest
fundamentally
gujarat
mausoleum
eon
gopher
mecca
tl
zor
##calf
##sim
##fowl
inaccess
##acic
##ivel
##iguous
archers
unr
unev
apprehend
outlines
boe
formby
##indler
dool
generates
battled
setbacks
transatlantic
skipper
skirt
menzies
277
palis
poorer
translating
nicola
baptized
##opolitan
hypothesized
heydrich
blacksmith
folks
antibiotics
liga
manifestation
staples
maclaren
empirical
guthrie
microwave
abreast
undeveloped
piłsudski
jervis
vet
vane
##now
##64
##35
##pace
##atars
##alypt
chit
aron
indra
mayo
liable
smithers
##brush
slab
impover
brev
##otti
##hene
claimant
announcer
femme
sunken
identifiable
sammy
eyck
marketplace
domitian
stanisław
vocalists
packing
packages
rearguard
shelved
bowls
illustrates
drying
##hetto
enhancing
panthe
clerical
tricky
pockets
hdmi
horizontally
waldorf
pushes
dignitaries
paranoid
intervening
clauses
hypothetical
paramilitary
atherton
bucharest
eich
lili
lsu
##rally
##gm
##asco
anomal
prion
##mental
allotted
allocation
carly
pew
brothel
defor
stewards
salute
argon
homec
merrick
secretariat
uncut
credential
##married
tyrant
policeman
methane
initials
ethic
65th
clarity
arias
learnt
smoothly
continuo
goddesses
jurisdictions
forecastle
gaveston
syllable
tariffs
dalmatia
ijn
uniquely
spontaneously
historiography
ziggler
kite
nanking
sock
tick
vitt
##nir
##wicks
##ische
thal
thou
arises
leve
contador
cares
stresses
broker
musicologist
nearing
##ulli
skyl
protracted
miocene
salient
devote
##araj
robbed
tyson
ghana
rumored
deserts
fabian
skelton
thoroughbred
tolerate
stabilized
overdub
cremated
tinker
jinnah
catesby
charcoal
cinder
gior
pia
pina
tread
đinh
##ska
forte
anita
unter
scant
intercon
acton
drastic
emit
monoxide
edd
epist
signaling
downey
greet
demonic
glover
holotype
obsidian
improves
dias
louvre
contractual
gala
misery
rivalries
rumor
nazar
mongolia
mycologist
anarchists
bedser
subfoss
lyndon
##film
wallachia
jagdgeschwader
phoebe
ery
eph
jugg
ull
vish
zem
##27
##hoe
##zin
##icola
##usha
##allah
recycled
interscope
canary
reggie
##brid
longev
oppress
natur
totalling
voicing
technicians
hyenas
cuth
pacif
texians
silverman
globular
permitting
misleading
fictitious
rebellions
concurred
andrei
furnished
luxur
keyboardist
miscar
glyph
analyze
laundry
disrepair
karabakh
60s
baff
daly
loki
nts
vult
##olian
##cton
usable
highlanders
revue
monstr
##phin
smashed
episodic
providers
repel
swagger
volk
denotes
##burger
derrick
floral
haem
vanilla
examines
jimi
mastery
gillan
omission
thinner
swimmers
harrisburg
coinciding
coca
clerks
banners
burgess
sulph
shook
eucalypt
empowerment
detrimental
dill
foy
gug
hz
wipe
##nard
##ritt
##uzzi
##icom
##omial
alvar
suites
sealing
plausible
leaks
##cci
grays
##uend
hasbro
rooft
attic
boiled
drank
##portion
moniker
invoked
belmont
serviced
##ikawa
goldfinger
palette
bayard
##umbles
wilts
flores
grohl
piloted
adjour
domesticated
axes
sugarc
honeymoon
stampede
flavour
bundes
await
unrestricted
crystalline
longevity
bx
gase
kow
sill
yash
##bir
##yin
##alai
##rika
sergio
##awan
poignant
monty
maeda
phineas
acrob
smel
medici
geh
legged
entourage
replaces
##new
274
264
palau
frankie
333
babcock
indications
pursuits
flowed
lifts
attends
mercian
authorship
gusty
earnhardt
siem
mackin
coroner
resurf
functionality
photographers
impairment
jealousy
bureaucracy
scrolls
ecstasy
xerxes
ptolemy
neurological
empowered
giuseppe
unevent
ln
lening
rol
uz
##dor
##hana
##jug
##atal
##itures
##acan
forster
asher
##tera
##heres
ores
pricing
ample
deser
emden
soaring
doomed
scha
crewe
systematically
evergreen
mycel
centralized
266
godfrey
garry
urn
urb
narayan
psyche
##breeding
chemically
leeward
repairing
haze
prohibiting
substitution
##rotected
crawl
revered
alej
##iyama
lesbians
hirst
hepatitis
bestseller
homecoming
leningrad
aero
nue
pinc
rale
ypres
##hanger
##gings
##watch
##87
forel
##uti
pliny
recount
commencing
rooney
##oldt
airl
brodie
deficiencies
willkie
longfellow
handc
malik
sanford
312
315
##chett
envis
investigator
ferris
##guards
kaif
hangs
cameroon
densities
1768
appropriated
anticipating
apologize
ibm
awaited
basilica
bohemian
sincere
parvati
thruway
dots
gey
jc
ritch
sok
woven
##casters
##kiewicz
##zburg
##øy
##ilateral
##imoto
heff
##apat
unrec
##onge
grims
coh
flashes
##osexuals
belgr
solemn
lookout
bodyline
##cheon
scriptures
bordering
sarcast
fearful
bonnet
41st
##iasis
ellison
marcos
outbreaks
comfortably
supernovae
bundled
brahmin
inexp
contemporaneous
swansea
griswold
energies
unleashed
disillusioned
pygmy
ih
nipp
##bull
##icher
##entious
fors
##ayor
degraded
##rique
tron
##cco
margu
creations
geza
##undo
criticize
injected
widowed
##ophagus
renoun
networking
seminal
acquisitions
amounting
dogg
cartel
hartley
censors
pretending
nasir
dorchester
1769
checking
condemning
bastille
canonical
penda
restarted
endeavour
creepy
carnivorous
logarithm
hibern
df
dane
##tro
##rade
##atility
##arves
##ouche
##amen
stony
##terman
##imura
chab
unbel
##ababes
hadros
##ellations
bray
adept
##ishima
##actyl
flann
##alsa
mauna
engulf
endure
##orno
whereupon
slips
##ussions
townspeople
##henko
organiz
fares
projectile
dealings
hershey
shutouts
gangs
traitor
##blood
1761
1760
assassins
lodged
graveyard
lauder
shooters
disapproval
##ablanca
motivations
disgrace
funerary
cout
dand
gough
goli
nour
niz
sikh
##zog
##yi
friar
unatt
##oker
##raf
sober
secondly
defect
capp
owning
headley
myles
##henes
cameos
311
314
356
scripture
births
1820s
hype
940
790
cameraman
navigator
redeploy
tapest
borrowing
dormant
barbarossa
syllables
artemis
bilingual
feng
gd
ghetto
nuth
sald
tnt
##birth
##inians
##utter
##antes
##ipar
crun
cranes
##ibar
quake
workload
##ooten
gee
##ussia
realities
sugababes
petitions
firefight
funky
influencing
leto
272
bayer
macaul
heroism
lettering
peacefully
mortgage
surveying
akh
840
fuzz
surgeons
csi
saginaw
fabricated
##garden
councillor
trivial
stelae
unauthorized
mahabhar
gorbachev
aki
cuc
chern
dough
ler
tian
vist
verg
wap
##bay
##ionics
##adio
##imps
plight
adi
gogh
indisc
indifferent
earld
sofia
welling
ops
brewing
swims
##class
iihf
organist
goodwill
##sham
duane
cutler
hahn
wildly
liege
bloods
ceres
gallon
fills
goldeneye
summons
upgrading
axle
lamont
improvisation
##bellum
##utsu
ravi
interpreter
faulty
congregational
kaiserliche
criterion
miscell
intrigued
nutrient
hewitt
vomiting
thwarted
palmyra
asiatic
bangalore
mixtape
daft
lidd
##21
##aroo
chil
tramp
trillion
scrib
##acharya
atten
canis
paralysis
britons
novella
postage
watertight
communicating
electors
ordeal
selma
reborn
mccar
carlsen
930
garrisoned
stemming
carpent
montever
answering
embracing
brahman
uganda
transept
vortex
unimpressed
therapeutic
bight
pons
paving
rin
wow
##atron
##icidal
##entennial
altr
##oderm
shiny
plume
roo
##iceps
moreau
thrive
##urring
metz
copp
economical
beatle
taxp
textbook
sarm
rods
grayish
barrister
wetland
symphonies
recurrent
gestures
dumont
##schild
dolly
overdose
vesp
claudia
frightening
ignorant
germain
cervical
sapphire
antiquarian
gaseous
gigs
upp
##kor
##bear
##acola
##imbs
bem
cones
##cho
##chon
##chlor
spices
outfl
eloqu
statehood
reductions
helper
reprim
broadcasters
wording
platoons
75th
335
linux
##icksburg
kingsley
doris
lenny
inquest
brilliantly
anatolia
baronet
dye
inventive
[...]
